#include "asc_data.h"

ai_handle ai_asc_data_weights_get(void)
{

  AI_ALIGNED(4)
  static const ai_u8 s_asc_weights[ 7840 ] = {
		    0x03, 0x4b, 0xe1, 0x3d, 0xe1, 0xd7, 0x84, 0xbc, 0xdb, 0x54,
		    0xea, 0xbd, 0x3d, 0x0d, 0xea, 0x3d, 0x74, 0x7c, 0x23, 0x3e,
		    0x49, 0xcb, 0x16, 0xbe, 0xc0, 0x63, 0x99, 0x3b, 0x65, 0x4f,
		    0xe7, 0x3d, 0x64, 0xf5, 0xe2, 0x3d, 0x83, 0xff, 0x3c, 0x3c,
		    0xcd, 0x25, 0xea, 0xbd, 0xf1, 0xd0, 0x0b, 0x3e, 0x77, 0x08,
		    0x85, 0x3d, 0x9c, 0x94, 0x21, 0x3e, 0xd4, 0x7c, 0xba, 0x3d,
		    0x15, 0x00, 0xc2, 0x3d, 0xab, 0xac, 0xb2, 0x3d, 0xcc, 0xaf,
		    0xdf, 0x3b, 0x89, 0xa3, 0x65, 0x3d, 0x42, 0xd0, 0x31, 0xbe,
		    0x3b, 0x97, 0xf6, 0xbd, 0x4a, 0xc2, 0xb9, 0xbd, 0xb0, 0xbe,
		    0xca, 0xbd, 0xe6, 0x52, 0x35, 0xbe, 0x37, 0xea, 0x99, 0xbd,
		    0xa9, 0x79, 0x39, 0xbd, 0x11, 0x59, 0xf4, 0xbd, 0x2d, 0xc9,
		    0x07, 0x3e, 0x55, 0x4f, 0x65, 0x3d, 0x94, 0xdc, 0xf7, 0x3a,
		    0xff, 0x43, 0xb6, 0x3c, 0xac, 0x2a, 0x53, 0x3e, 0x3e, 0x91,
		    0x40, 0x3e, 0x81, 0x10, 0x07, 0x3e, 0x71, 0x75, 0x2b, 0xbc,
		    0x4e, 0xf9, 0xe3, 0xbd, 0x45, 0xa7, 0x47, 0x3e, 0x1f, 0xfe,
		    0x31, 0xbe, 0x00, 0xfa, 0x24, 0x3e, 0x71, 0x94, 0xa0, 0xbd,
		    0xe9, 0x01, 0x38, 0x3e, 0x74, 0x62, 0x7d, 0x3d, 0xda, 0x27,
		    0x7c, 0x3d, 0x69, 0x51, 0x3f, 0x3e, 0x86, 0xfa, 0x00, 0x3e,
		    0x93, 0xd1, 0x09, 0x3e, 0x12, 0x66, 0x8d, 0x3d, 0xb0, 0x8d,
		    0xbe, 0x3c, 0xb8, 0x8b, 0xc1, 0x3d, 0x85, 0xa5, 0x33, 0xbe,
		    0x65, 0x96, 0xfa, 0xbd, 0x87, 0x4d, 0x91, 0x3d, 0x08, 0xce,
		    0x3e, 0xbd, 0xc1, 0x61, 0xd1, 0x3d, 0x95, 0xd5, 0x2d, 0xbb,
		    0xea, 0x1c, 0xc9, 0x3c, 0x87, 0x4a, 0x9f, 0x3d, 0x18, 0x83,
		    0x61, 0x3e, 0x5d, 0xa9, 0xa9, 0x3d, 0x39, 0x0b, 0xec, 0x3c,
		    0x96, 0xf8, 0xee, 0xbd, 0xb5, 0x23, 0x08, 0x3d, 0xca, 0x87,
		    0x36, 0x3e, 0xa8, 0xd2, 0x1c, 0xbe, 0x64, 0x52, 0xe4, 0xbd,
		    0x0f, 0x2d, 0xa4, 0xbd, 0xc3, 0x52, 0x0a, 0x3e, 0xd0, 0x3d,
		    0x59, 0xbd, 0xa3, 0xe9, 0xb0, 0xbd, 0xfe, 0x46, 0x1e, 0x3d,
		    0x7d, 0x76, 0x01, 0x3e, 0xb4, 0xba, 0x1e, 0x3d, 0xd3, 0x7c,
		    0x53, 0xbe, 0xce, 0x41, 0x95, 0x3d, 0x39, 0x01, 0x4f, 0xbe,
		    0x60, 0x49, 0x2f, 0x3e, 0x94, 0x8d, 0x31, 0xbd, 0x5f, 0x63,
		    0xda, 0xbd, 0x19, 0x33, 0x14, 0xbd, 0xf3, 0x06, 0x4e, 0xbe,
		    0x93, 0x19, 0x1c, 0x3e, 0x1a, 0x20, 0xb9, 0x3d, 0x33, 0x70,
		    0xdc, 0xbd, 0xce, 0x2e, 0xf7, 0x3d, 0xda, 0x64, 0x1b, 0x3e,
		    0xef, 0x00, 0x45, 0x3e, 0x1b, 0x23, 0xd2, 0xbc, 0xbf, 0xbb,
		    0xff, 0xbd, 0xbc, 0x87, 0xfa, 0x3d, 0x8e, 0x4f, 0xe4, 0xbc,
		    0x6f, 0x4f, 0xbb, 0x3d, 0xc3, 0x34, 0x50, 0xbe, 0x2c, 0x24,
		    0x16, 0xbe, 0xdf, 0x4f, 0x74, 0xbd, 0xfa, 0x59, 0xe3, 0x3d,
		    0xd7, 0xac, 0xe2, 0x3d, 0x05, 0xbf, 0x54, 0xbe, 0xca, 0x3c,
		    0x09, 0x3d, 0xd1, 0xed, 0x67, 0xbe, 0x57, 0x4d, 0xd6, 0x3c,
		    0x50, 0x9f, 0x15, 0x3e, 0x88, 0x33, 0xbc, 0xbc, 0x83, 0xd2,
		    0x47, 0xbe, 0x0e, 0xc4, 0xb7, 0x3d, 0x18, 0xef, 0x55, 0x3d,
		    0xe6, 0x1e, 0x00, 0xbe, 0x51, 0xaa, 0x0d, 0xbe, 0x08, 0x4d,
		    0x22, 0xbe, 0xd6, 0xce, 0x6a, 0x3e, 0x31, 0xbc, 0xe1, 0xbd,
		    0x62, 0x72, 0x28, 0x3e, 0x84, 0xb8, 0x87, 0x3d, 0x52, 0xae,
		    0x74, 0x3e, 0xe5, 0x2b, 0x59, 0x3e, 0x7f, 0x17, 0x73, 0x3e,
		    0x16, 0x40, 0x43, 0x3e, 0x21, 0x28, 0x78, 0x3e, 0x69, 0xec,
		    0x21, 0xbe, 0x41, 0x64, 0x0d, 0xbc, 0x7d, 0xfb, 0x60, 0xbd,
		    0xa5, 0xa7, 0x08, 0x3e, 0x90, 0x5e, 0xd3, 0xbd, 0xba, 0xc3,
		    0x6a, 0xbe, 0xda, 0x04, 0x15, 0xbe, 0x59, 0x61, 0x14, 0xbe,
		    0xe1, 0x9f, 0x12, 0xbe, 0x43, 0x59, 0xed, 0x3a, 0xae, 0x48,
		    0x24, 0xbd, 0x53, 0xd8, 0x36, 0x3d, 0xf5, 0xa8, 0x2a, 0x3e,
		    0x5f, 0x99, 0x0c, 0xbe, 0x50, 0x67, 0xe6, 0x3d, 0xbf, 0xcd,
		    0xfb, 0x3d, 0x7e, 0x6a, 0xd1, 0x3d, 0xcf, 0xf6, 0x91, 0x3d,
		    0xef, 0x60, 0xb6, 0xbd, 0x23, 0x30, 0xe2, 0xbd, 0x56, 0x80,
		    0x25, 0x3e, 0xf4, 0x42, 0x8c, 0x3c, 0xcf, 0x0c, 0x3c, 0x3e,
		    0x6f, 0x7c, 0x60, 0xbd, 0x68, 0xef, 0x12, 0xbe, 0x83, 0x6f,
		    0x48, 0x3e, 0x00, 0x64, 0x95, 0xbd, 0xc4, 0x25, 0x1f, 0x3c,
		    0xee, 0x56, 0x25, 0xbd, 0x5b, 0x5f, 0x1d, 0xbd, 0xd8, 0x95,
		    0xf7, 0xbb, 0x74, 0x03, 0x2c, 0x3d, 0xa0, 0xaf, 0xb6, 0xbc,
		    0xc7, 0xd3, 0x05, 0x3d, 0x8c, 0x9e, 0x81, 0xbc, 0xef, 0x27,
		    0xa9, 0xba, 0x12, 0x13, 0xc5, 0xbb, 0x3c, 0xbf, 0xff, 0x3c,
		    0x13, 0xbb, 0xff, 0x3b, 0x07, 0xbb, 0xf6, 0x3c, 0x3c, 0x14,
		    0x3f, 0xbb, 0xbc, 0xae, 0x80, 0xbd, 0x8d, 0xdb, 0xca, 0x3c,
		    0x09, 0x77, 0x60, 0xbc, 0x31, 0xee, 0xc7, 0xbc, 0xeb, 0xb3,
		    0x1b, 0x3e, 0xcf, 0xd2, 0x98, 0x3d, 0xdf, 0x5c, 0xa2, 0x3d,
		    0x52, 0x87, 0x33, 0xbd, 0x49, 0x4b, 0x11, 0xbe, 0x5a, 0x4d,
		    0x17, 0xbb, 0xcb, 0xc5, 0x9f, 0x3d, 0xa2, 0x53, 0x14, 0x3e,
		    0x24, 0x20, 0xe3, 0x3d, 0xe1, 0x54, 0x2a, 0xbc, 0x7d, 0xe2,
		    0x95, 0xbd, 0x55, 0xb5, 0xe7, 0x3d, 0x46, 0x8b, 0x63, 0xbd,
		    0x38, 0x06, 0x0b, 0xbe, 0xbe, 0x01, 0x94, 0x3d, 0x3a, 0x2e,
		    0x42, 0xbc, 0xac, 0x9c, 0x30, 0x3d, 0x5a, 0x39, 0xa2, 0xbd,
		    0xff, 0x37, 0x10, 0xbd, 0xc9, 0xc8, 0x10, 0x3d, 0x2f, 0x6c,
		    0x6d, 0xbb, 0xc6, 0xb5, 0x07, 0xbe, 0x66, 0x02, 0xa3, 0x3d,
		    0x82, 0x69, 0xff, 0x3c, 0x18, 0x42, 0x4c, 0xbd, 0x6b, 0x81,
		    0x25, 0xbd, 0xb8, 0xec, 0x78, 0x3d, 0x8d, 0x06, 0xdb, 0x3d,
		    0xaf, 0x35, 0xd4, 0x3c, 0x89, 0x1e, 0x94, 0xbd, 0xab, 0xe0,
		    0xcd, 0x3d, 0x21, 0x7f, 0x21, 0xbd, 0x99, 0x0c, 0xa6, 0x3d,
		    0x91, 0xe6, 0xc4, 0x3c, 0x57, 0x62, 0x8a, 0xbd, 0x61, 0x53,
		    0xb2, 0x3d, 0x83, 0x1c, 0x36, 0xbd, 0xf1, 0x36, 0x4f, 0x3d,
		    0xdd, 0x97, 0xc6, 0x3d, 0x21, 0xd3, 0x85, 0xbd, 0x42, 0x0c,
		    0x17, 0x3e, 0xb4, 0x8d, 0xc6, 0xbd, 0xae, 0xa0, 0xba, 0xbd,
		    0xea, 0xe5, 0x92, 0xbd, 0x00, 0x9e, 0x61, 0x3d, 0x6b, 0xc5,
		    0xd6, 0x3d, 0x5b, 0xe9, 0x08, 0xbe, 0x67, 0x37, 0xc0, 0xbd,
		    0xf0, 0xaf, 0xe9, 0xbd, 0xa9, 0xc3, 0xbf, 0x3d, 0x8a, 0x7c,
		    0x1d, 0xbc, 0xda, 0xea, 0x0e, 0xbe, 0x72, 0x52, 0xa1, 0xbd,
		    0xd4, 0xf5, 0x35, 0x3d, 0xa3, 0x3b, 0xf2, 0x3d, 0x8f, 0x29,
		    0xa6, 0xbd, 0x5c, 0xa0, 0x06, 0x3e, 0x09, 0x5a, 0x58, 0x3b,
		    0x74, 0x14, 0xc6, 0xbd, 0x5c, 0x69, 0x06, 0x3e, 0xa6, 0x5a,
		    0xfe, 0x3b, 0xd5, 0x17, 0x6c, 0xbd, 0x2a, 0xb7, 0x89, 0xbd,
		    0x38, 0xe6, 0xeb, 0x3d, 0x19, 0x42, 0x29, 0xbd, 0x96, 0x59,
		    0xd2, 0x3d, 0x2e, 0x33, 0xf4, 0x3c, 0xe3, 0xdc, 0x08, 0xbe,
		    0x38, 0x19, 0x07, 0x3c, 0xc8, 0xb7, 0xfd, 0xbd, 0xb7, 0xc1,
		    0xa5, 0x3c, 0x82, 0x21, 0x18, 0xbd, 0xcd, 0x85, 0x17, 0xbd,
		    0x7e, 0xa1, 0x00, 0xbd, 0xed, 0x46, 0xed, 0x3b, 0xaa, 0x45,
		    0xba, 0xbd, 0xb1, 0xef, 0x10, 0xbc, 0xae, 0x58, 0x05, 0x3e,
		    0x19, 0x96, 0xf8, 0x3d, 0x30, 0xf1, 0xdb, 0xbd, 0x8b, 0xb9,
		    0x02, 0x3e, 0x11, 0xf9, 0xf0, 0x3d, 0xc1, 0x0c, 0x05, 0xbe,
		    0x58, 0x5e, 0xf0, 0x3d, 0xba, 0x76, 0xb7, 0xbd, 0x70, 0x78,
		    0x2e, 0xbd, 0x02, 0xb9, 0x4d, 0x3c, 0x92, 0x52, 0xea, 0xb8,
		    0x78, 0x38, 0xf3, 0x3c, 0xb0, 0x06, 0xd7, 0x3b, 0xe3, 0xae,
		    0xfd, 0x3d, 0x4b, 0xe6, 0x16, 0x3c, 0xc7, 0xcf, 0x66, 0xbc,
		    0xc7, 0x41, 0xc7, 0xbd, 0xd7, 0x23, 0xbc, 0x3d, 0x6d, 0x28,
		    0xbc, 0xbd, 0x9f, 0x53, 0x0f, 0x3e, 0xf7, 0x63, 0x0b, 0x3d,
		    0xdb, 0x24, 0xc0, 0xbd, 0xd8, 0xfc, 0x0f, 0xbe, 0x15, 0x3f,
		    0xf1, 0xbd, 0x61, 0x5a, 0x6f, 0x3d, 0x84, 0x5c, 0x80, 0xbd,
		    0x84, 0xdb, 0x40, 0x3d, 0x33, 0xae, 0xf5, 0xbd, 0x69, 0x88,
		    0xee, 0x3c, 0xbf, 0xa4, 0x8c, 0x3c, 0xd1, 0x4a, 0x16, 0x3e,
		    0x95, 0xf6, 0x22, 0x3d, 0x4d, 0x5c, 0xe2, 0xbd, 0x88, 0xdb,
		    0x7d, 0x3c, 0x8c, 0x23, 0x91, 0x3d, 0xff, 0xc8, 0x5c, 0xbd,
		    0x3d, 0xe6, 0xd9, 0xbd, 0xc2, 0x71, 0x92, 0xbd, 0xe2, 0xf4,
		    0xbf, 0x3c, 0x9f, 0x1c, 0xdc, 0x3d, 0x03, 0x22, 0x6d, 0xbd,
		    0x4a, 0x48, 0xdf, 0x3d, 0xe8, 0x80, 0xb4, 0xbd, 0xa5, 0xde,
		    0xbb, 0x3d, 0x01, 0x56, 0x6b, 0xbd, 0x41, 0xa9, 0x13, 0x3d,
		    0xbc, 0x5c, 0xdb, 0x3d, 0xf8, 0x96, 0xfb, 0xbd, 0x57, 0x65,
		    0xf8, 0xbd, 0x80, 0x2f, 0xe6, 0xbd, 0x0c, 0x2c, 0x81, 0xbc,
		    0x72, 0x3b, 0xbe, 0xbc, 0xef, 0xc4, 0x62, 0xbd, 0x2b, 0x3a,
		    0x9c, 0xbd, 0xc0, 0x54, 0xaf, 0xbd, 0x53, 0xeb, 0xc9, 0x3d,
		    0x6a, 0x30, 0x07, 0xbe, 0x0f, 0xa4, 0x14, 0x3e, 0xf4, 0x0a,
		    0xfc, 0xbd, 0x8c, 0x6b, 0x3b, 0x3c, 0xcd, 0xfb, 0x53, 0x3c,
		    0xe2, 0x87, 0x13, 0xbe, 0x0c, 0xff, 0x29, 0xbc, 0xc6, 0x09,
		    0x36, 0xbd, 0xed, 0x31, 0x85, 0x3d, 0x24, 0xa4, 0x27, 0x3d,
		    0x1f, 0x7b, 0x5b, 0x3d, 0xb6, 0x3b, 0x55, 0xbd, 0xe1, 0xf7,
		    0x40, 0xbd, 0x84, 0xa5, 0x0b, 0x3e, 0x40, 0xf5, 0x9b, 0x3c,
		    0x8f, 0x93, 0xcb, 0xbd, 0xcb, 0x04, 0x1d, 0x3d, 0xe9, 0xa5,
		    0x0f, 0xbd, 0xf2, 0x30, 0xc4, 0x3d, 0xb0, 0xf4, 0x69, 0xbd,
		    0x3f, 0x43, 0xbc, 0xbd, 0x45, 0x24, 0x4a, 0xbd, 0x81, 0xaf,
		    0x16, 0x3c, 0x5c, 0x92, 0xa1, 0xbd, 0xc2, 0x9e, 0xcc, 0x3d,
		    0xd2, 0x34, 0x00, 0xbd, 0x51, 0xc3, 0xc5, 0xbc, 0x24, 0x2b,
		    0x17, 0xb9, 0xbb, 0xf0, 0x03, 0xbe, 0xb1, 0x2f, 0x0e, 0x3c,
		    0x58, 0x55, 0xd5, 0xbd, 0x67, 0xb1, 0xba, 0xbb, 0xcd, 0x05,
		    0x96, 0x3d, 0xfd, 0x14, 0xa8, 0x3d, 0xe0, 0x2e, 0x0f, 0x3e,
		    0x5d, 0x1f, 0xb4, 0xbd, 0x55, 0x59, 0x49, 0x3d, 0x85, 0xee,
		    0x82, 0xbd, 0x83, 0xdb, 0x27, 0x3c, 0x30, 0xd6, 0xd1, 0xbc,
		    0xaf, 0x3a, 0xee, 0x3d, 0xeb, 0x3e, 0x88, 0xbd, 0x62, 0x89,
		    0x16, 0xbc, 0x79, 0xcf, 0x67, 0x3b, 0x1a, 0x7f, 0xd0, 0xbd,
		    0xad, 0x08, 0x49, 0x3c, 0x60, 0x5c, 0x10, 0xbe, 0x2f, 0xb4,
		    0x2f, 0xbc, 0x03, 0x9f, 0xf6, 0x3c, 0x33, 0x19, 0xa3, 0xbd,
		    0x6f, 0x20, 0xdb, 0x3d, 0xcd, 0x62, 0x25, 0xbd, 0x89, 0x4c,
		    0x27, 0xbd, 0xe2, 0xa6, 0x26, 0xbd, 0xe4, 0xc6, 0x33, 0xbd,
		    0xfe, 0x99, 0x18, 0xbd, 0xe1, 0xb1, 0x9c, 0xbd, 0xb6, 0x44,
		    0x0e, 0xbe, 0x9e, 0x63, 0xc2, 0xbd, 0x4c, 0x43, 0x0f, 0xbe,
		    0xbb, 0x1a, 0x5e, 0xbd, 0x76, 0x86, 0xe6, 0xbc, 0x4d, 0x52,
		    0xc9, 0xbd, 0x00, 0x9c, 0x07, 0x3d, 0x24, 0x51, 0xaf, 0xbc,
		    0x72, 0xb0, 0x06, 0xbe, 0x80, 0x0f, 0x65, 0x3d, 0x33, 0x7f,
		    0x11, 0x3e, 0xda, 0xdb, 0xe2, 0xbc, 0x13, 0x27, 0xe7, 0x3c,
		    0x1e, 0x4e, 0x80, 0x3d, 0xa9, 0x73, 0x01, 0xbe, 0x9e, 0x86,
		    0x3e, 0xbd, 0x75, 0x20, 0xfb, 0x3d, 0xac, 0xd8, 0x55, 0x3d,
		    0x46, 0x4b, 0x04, 0xbe, 0x9c, 0x1e, 0x37, 0xbc, 0x3f, 0x87,
		    0x9c, 0xbd, 0xf4, 0x34, 0x53, 0xbc, 0x1b, 0xa6, 0xfd, 0x3c,
		    0x53, 0xa9, 0xd0, 0x3b, 0xbf, 0x1f, 0x12, 0x3c, 0x0b, 0xdc,
		    0xa4, 0x3d, 0xeb, 0x09, 0x32, 0xbd, 0x57, 0xfa, 0x07, 0x3e,
		    0x69, 0x81, 0x08, 0x3e, 0xec, 0xe8, 0xc6, 0x3d, 0xf4, 0x47,
		    0xe2, 0x3d, 0x92, 0x79, 0xf7, 0x3d, 0x93, 0x19, 0x54, 0x3d,
		    0x43, 0x99, 0xf6, 0xbd, 0x1f, 0x30, 0xdb, 0x3d, 0xbb, 0x54,
		    0xe0, 0x3d, 0x12, 0x99, 0xb4, 0x3d, 0x11, 0x7d, 0x49, 0x3d,
		    0x5b, 0x57, 0x6f, 0x3d, 0x46, 0x36, 0xab, 0xbd, 0x21, 0xed,
		    0xd8, 0x3d, 0x63, 0x06, 0xe7, 0x3d, 0x35, 0xa2, 0x0e, 0xbe,
		    0x2a, 0x46, 0x56, 0xbd, 0x62, 0x1c, 0xbf, 0x3d, 0x03, 0x02,
		    0xc4, 0x3c, 0x5f, 0xec, 0x39, 0x3d, 0xc9, 0xf0, 0xb9, 0xbd,
		    0x27, 0x6e, 0x8e, 0xbd, 0x56, 0x64, 0x54, 0x3d, 0x20, 0x0a,
		    0xe6, 0xbd, 0xe2, 0x37, 0xa5, 0x3d, 0x4f, 0xb4, 0x17, 0xbb,
		    0x7a, 0x01, 0xdf, 0x3d, 0x83, 0x6f, 0xd9, 0xbb, 0x8a, 0xeb,
		    0x11, 0xbe, 0x24, 0xc4, 0xfd, 0xbd, 0x43, 0x66, 0x80, 0xbc,
		    0x46, 0x8e, 0xd6, 0x3d, 0x4d, 0x41, 0xbd, 0xbd, 0xf4, 0x35,
		    0xac, 0x3d, 0x16, 0x24, 0x09, 0x3e, 0x00, 0xd1, 0xa4, 0xbd,
		    0x2a, 0x72, 0x82, 0x3d, 0x9c, 0x29, 0x9a, 0x3c, 0xab, 0xfe,
		    0xa6, 0xbd, 0x76, 0x27, 0xbe, 0xbd, 0x4d, 0x94, 0x30, 0x3d,
		    0xfb, 0x41, 0x98, 0x3d, 0xe7, 0x16, 0x86, 0x3d, 0xf8, 0xde,
		    0x9a, 0x3b, 0x29, 0xc0, 0x8a, 0xbd, 0x69, 0xa6, 0xaa, 0x3b,
		    0x88, 0xe1, 0x10, 0x3d, 0xa3, 0xed, 0x4b, 0xbd, 0x14, 0x7e,
		    0xe6, 0x3d, 0x46, 0xa8, 0xe2, 0x3c, 0xfe, 0xb3, 0xca, 0xbd,
		    0x3e, 0x6e, 0x85, 0x3d, 0x29, 0x5a, 0x52, 0xbd, 0x38, 0xcb,
		    0xd0, 0x38, 0xc3, 0x01, 0x9b, 0x3d, 0x2b, 0xe0, 0xd9, 0x3d,
		    0x50, 0xb4, 0xfb, 0x3d, 0xf2, 0x36, 0x81, 0x3d, 0x67, 0x8c,
		    0xc0, 0x3d, 0xf0, 0x9a, 0x07, 0x3e, 0x58, 0xb1, 0x27, 0x3d,
		    0x84, 0x5a, 0x18, 0x3b, 0xe0, 0x74, 0x0b, 0x3e, 0x34, 0x02,
		    0x59, 0x3d, 0xc1, 0xd3, 0x72, 0xbd, 0x52, 0x44, 0x47, 0x3d,
		    0x53, 0x3f, 0x0c, 0xbd, 0x5d, 0x8c, 0x12, 0xbe, 0xd7, 0x6e,
		    0xbf, 0x3d, 0xf9, 0x19, 0xb3, 0x3c, 0x02, 0xe8, 0x02, 0x3e,
		    0xb2, 0x71, 0xff, 0x3c, 0x94, 0xf8, 0xae, 0x3c, 0x92, 0xc3,
		    0x0f, 0xbd, 0x5b, 0xe3, 0x13, 0x3d, 0x57, 0x34, 0x5c, 0x3d,
		    0xe7, 0xe8, 0x99, 0xbd, 0xe7, 0x00, 0xeb, 0x3d, 0xe6, 0x06,
		    0x59, 0xbd, 0x9d, 0x5a, 0xeb, 0xbd, 0xbd, 0x17, 0x0c, 0xbe,
		    0xea, 0x77, 0xf4, 0x3c, 0x7f, 0xd8, 0xbd, 0xbd, 0xb0, 0xfa,
		    0xde, 0x3d, 0x21, 0xec, 0xcf, 0x3c, 0x54, 0x3a, 0xac, 0xbd,
		    0xfc, 0x20, 0xa8, 0xbd, 0x40, 0xbd, 0xab, 0xbb, 0xf6, 0x25,
		    0x2a, 0x3d, 0xba, 0xbf, 0xbf, 0xbc, 0xad, 0x73, 0xf5, 0x3d,
		    0x53, 0xbd, 0x07, 0x3e, 0xc1, 0x46, 0x80, 0x3c, 0x33, 0x83,
		    0xfb, 0x3d, 0xa8, 0xaa, 0xac, 0x3d, 0x9e, 0x33, 0xd8, 0xbd,
		    0x81, 0x23, 0x8c, 0x3d, 0x6f, 0xe9, 0xf9, 0x3d, 0x7b, 0xda,
		    0x52, 0x3c, 0x7a, 0x0e, 0xcb, 0xbc, 0x37, 0x41, 0xa7, 0xbb,
		    0xb5, 0x45, 0xbf, 0xbd, 0x92, 0xdd, 0xb3, 0xbd, 0xad, 0x7a,
		    0x01, 0xbd, 0x8c, 0xc3, 0xd8, 0xbc, 0xec, 0x95, 0x05, 0x3e,
		    0x27, 0xd4, 0xe4, 0xbd, 0x0f, 0x9c, 0x2f, 0xbd, 0xf1, 0x9d,
		    0xf0, 0xbd, 0x20, 0x0e, 0x9c, 0xbd, 0x77, 0xf8, 0xad, 0x3d,
		    0x58, 0x01, 0x9a, 0x3d, 0x86, 0x72, 0xad, 0xbd, 0x99, 0x27,
		    0xcb, 0x3d, 0xa1, 0x9c, 0x92, 0xbc, 0xb8, 0xcb, 0x1e, 0x3e,
		    0x31, 0xf5, 0x14, 0xbe, 0xba, 0xd8, 0x50, 0x3b, 0x19, 0x28,
		    0xc3, 0xbd, 0x29, 0xeb, 0xc7, 0xbd, 0x0f, 0xcd, 0xd7, 0xbd,
		    0xf5, 0x5c, 0x32, 0x3e, 0x48, 0x26, 0xaf, 0xbd, 0x1a, 0x45,
		    0xe3, 0x3d, 0x22, 0x9a, 0x9b, 0x3c, 0x42, 0x29, 0xe3, 0xbd,
		    0xfd, 0x84, 0xa3, 0x3c, 0xe2, 0x7d, 0x02, 0xbe, 0xed, 0xae,
		    0x72, 0x3c, 0x8a, 0x88, 0xc3, 0x3d, 0x05, 0x0d, 0xf6, 0x3c,
		    0x5e, 0x34, 0xce, 0xbd, 0xde, 0x60, 0xa4, 0x3d, 0xd9, 0x58,
		    0xc4, 0xbd, 0x42, 0x3e, 0xc1, 0x3c, 0x3b, 0xd4, 0xfb, 0x3d,
		    0xe9, 0xf8, 0xa2, 0xbd, 0xfb, 0xd2, 0x20, 0x3d, 0xcd, 0xba,
		    0x01, 0xbc, 0x9a, 0xe4, 0xf8, 0x3b, 0x35, 0x8a, 0xce, 0xbc,
		    0xa8, 0x92, 0x5e, 0x3d, 0x12, 0x6f, 0xe1, 0x3d, 0xae, 0x56,
		    0x7e, 0x3d, 0x3a, 0x32, 0xba, 0x3c, 0xd3, 0x9d, 0x7d, 0xbd,
		    0xb1, 0xfe, 0xf5, 0xbd, 0x8e, 0x5e, 0x18, 0x3e, 0x1d, 0x75,
		    0x81, 0xbc, 0xe2, 0xc6, 0x12, 0xbd, 0x48, 0x31, 0x76, 0x3d,
		    0xff, 0x6a, 0xf0, 0x3d, 0x92, 0xe3, 0xb8, 0x3d, 0xb3, 0x74,
		    0x04, 0xbd, 0x80, 0xa0, 0xe2, 0x3d, 0x3f, 0x8d, 0x33, 0xbd,
		    0x83, 0xe3, 0x1f, 0x3d, 0xfb, 0x1b, 0x7d, 0x3d, 0x02, 0x8c,
		    0x88, 0xbd, 0x45, 0xcf, 0x67, 0x3d, 0xeb, 0xc0, 0x63, 0x3b,
		    0xf5, 0x4d, 0xda, 0x3d, 0x7f, 0xf5, 0xba, 0xbc, 0x1f, 0xeb,
		    0x1c, 0x3d, 0x86, 0x17, 0x47, 0xbd, 0x0d, 0x9a, 0x9e, 0x3d,
		    0xe9, 0xd1, 0xf1, 0x3c, 0x2e, 0x98, 0x97, 0x3d, 0xc4, 0x78,
		    0x1a, 0x3e, 0xdd, 0xe4, 0xc3, 0x3d, 0x43, 0x3e, 0xca, 0xbd,
		    0x9e, 0xdd, 0x1c, 0x3e, 0xa6, 0x0a, 0x68, 0x3d, 0x85, 0xed,
		    0x09, 0x3d, 0xde, 0x03, 0xc4, 0xbb, 0x31, 0xc4, 0x80, 0x3d,
		    0x57, 0x3a, 0xc5, 0xbd, 0x49, 0x43, 0x4c, 0x3e, 0xbe, 0x9d,
		    0x93, 0x3d, 0xce, 0x99, 0x0b, 0x3e, 0x50, 0xee, 0x80, 0xbd,
		    0xbc, 0x3d, 0x1a, 0x3e, 0x6f, 0x41, 0x15, 0xbd, 0x1e, 0x82,
		    0xf4, 0xbd, 0x0b, 0x54, 0x77, 0x3d, 0x2c, 0x21, 0xcb, 0x3d,
		    0xbf, 0x34, 0x4e, 0xbd, 0x0b, 0x21, 0xf9, 0xbc, 0xa0, 0xe2,
		    0xd5, 0xbc, 0x55, 0x61, 0xcb, 0xbd, 0xe2, 0x4e, 0x93, 0x3d,
		    0xc5, 0xf1, 0xec, 0xbd, 0x30, 0xff, 0xcb, 0x3d, 0x3c, 0x0f,
		    0x30, 0x3e, 0x14, 0x5d, 0xbd, 0xbd, 0xe9, 0x86, 0x16, 0x3e,
		    0xe5, 0xb2, 0x9c, 0xbd, 0xb6, 0xa5, 0x25, 0x3e, 0xd2, 0x44,
		    0xd8, 0x3d, 0x67, 0x58, 0x9e, 0x3d, 0xd8, 0xed, 0xc5, 0x3d,
		    0x0d, 0x3e, 0x92, 0xbc, 0xb3, 0x7a, 0x5b, 0xbd, 0x31, 0x4b,
		    0xf7, 0x3d, 0xac, 0x32, 0xca, 0xbd, 0x0c, 0x4c, 0x49, 0x3d,
		    0xd1, 0x65, 0x0b, 0xbc, 0xcb, 0xf0, 0x85, 0xb8, 0x7f, 0xf5,
		    0xda, 0xba, 0x4a, 0x1c, 0x4a, 0x3e, 0x8d, 0x71, 0x7e, 0x3b,
		    0xe8, 0x36, 0xc4, 0x3d, 0xc8, 0x68, 0x89, 0x3d, 0x3d, 0x1e,
		    0xc8, 0x3d, 0x4f, 0xad, 0xed, 0x3d, 0xc2, 0x42, 0x0b, 0x3e,
		    0x5c, 0x52, 0xd4, 0x3d, 0xe4, 0x80, 0xf3, 0xbd, 0xee, 0xc4,
		    0xde, 0x3d, 0xef, 0x12, 0xc2, 0x3d, 0xc8, 0xf8, 0x8b, 0x3c,
		    0xd8, 0x84, 0xaf, 0x3c, 0xe4, 0x60, 0x38, 0x3d, 0xfa, 0x4d,
		    0x11, 0xbe, 0x75, 0x1e, 0xc8, 0xbd, 0xb8, 0xd9, 0xca, 0xbd,
		    0x18, 0x97, 0xf5, 0xbd, 0xb9, 0xa2, 0x4d, 0x3d, 0x47, 0x22,
		    0xe5, 0xbd, 0x74, 0x1b, 0xdf, 0xbd, 0x09, 0x63, 0xe7, 0xbd,
		    0xc2, 0xcf, 0xe6, 0x3d, 0x5f, 0x64, 0xce, 0x3d, 0x1a, 0x48,
		    0xa4, 0x3c, 0x8a, 0x8a, 0x03, 0xbe, 0x98, 0xbb, 0x06, 0xbe,
		    0x51, 0x6b, 0xf4, 0x3d, 0xd7, 0x61, 0x3e, 0xbd, 0x73, 0xba,
		    0xa0, 0x3c, 0xe3, 0x53, 0x86, 0x3d, 0x95, 0x98, 0x74, 0x3d,
		    0x82, 0xb5, 0x0b, 0xbe, 0xdc, 0x2a, 0x87, 0x3d, 0x19, 0xe8,
		    0xd8, 0xbd, 0x13, 0x22, 0x80, 0xbd, 0x72, 0x90, 0x0b, 0x3e,
		    0x52, 0x2c, 0xa4, 0xbc, 0x11, 0x48, 0xfe, 0xbd, 0xda, 0x3f,
		    0x0a, 0x3e, 0xa7, 0x13, 0x5d, 0x3d, 0xda, 0x2e, 0x00, 0x3e,
		    0x5d, 0x8e, 0xa5, 0x3d, 0x93, 0xc6, 0x59, 0xbd, 0x5d, 0x59,
		    0x91, 0x3d, 0x9f, 0x17, 0x14, 0xbe, 0x99, 0xfd, 0x07, 0xbe,
		    0x85, 0x98, 0x9e, 0xbc, 0x9a, 0x56, 0x00, 0xbe, 0xfe, 0x8f,
		    0x72, 0xbc, 0x91, 0xf0, 0xfd, 0xbd, 0xd9, 0xbf, 0xaf, 0xbd,
		    0x15, 0x6b, 0xcb, 0xbd, 0x3b, 0x30, 0xcb, 0xbd, 0xd6, 0x49,
		    0xe6, 0x3d, 0xb0, 0xe0, 0x0d, 0xbe, 0x50, 0x2e, 0xaf, 0x3d,
		    0x4a, 0x9b, 0x48, 0xbc, 0x51, 0x37, 0x1d, 0xbd, 0xb6, 0x4d,
		    0xf0, 0x3d, 0x8a, 0x2f, 0xa1, 0xbd, 0xd3, 0xfc, 0x44, 0x3d,
		    0x1b, 0xa4, 0x87, 0xbd, 0x15, 0x71, 0xee, 0xbd, 0xa8, 0x2a,
		    0xd1, 0xbd, 0xed, 0x2d, 0x7e, 0xbc, 0x1a, 0x22, 0x9c, 0xbd,
		    0xfc, 0x51, 0x2e, 0x3c, 0x0b, 0x07, 0xde, 0x3b, 0x95, 0x6a,
		    0x39, 0x3c, 0xda, 0x8b, 0xa8, 0xbd, 0x50, 0x78, 0xe0, 0x3d,
		    0x1a, 0x74, 0xde, 0xbd, 0x7c, 0xe2, 0x0f, 0xbe, 0xdd, 0x0c,
		    0x5f, 0xbd, 0xce, 0x0c, 0x0a, 0xbe, 0xe2, 0xca, 0x05, 0xbe,
		    0x8c, 0xf3, 0x5e, 0x3c, 0x11, 0xae, 0xb7, 0xbd, 0x7a, 0x77,
		    0xc1, 0x3d, 0x1d, 0xef, 0xb0, 0x3c, 0x3c, 0xf1, 0x02, 0x3e,
		    0xf1, 0x55, 0x70, 0xbd, 0x1e, 0x6b, 0xe6, 0x3d, 0xd0, 0xa8,
		    0xca, 0x3d, 0x5b, 0xd9, 0x8a, 0xbd, 0xb1, 0x34, 0x67, 0xbd,
		    0x03, 0x9a, 0x03, 0x3e, 0xe5, 0xbf, 0x01, 0x3e, 0xf1, 0x17,
		    0x75, 0x3c, 0x23, 0x10, 0x8a, 0xba, 0xfc, 0x21, 0xe6, 0x3d,
		    0x91, 0xec, 0xaf, 0x3d, 0x8a, 0x6b, 0x03, 0xbd, 0x69, 0x67,
		    0x8e, 0xbd, 0x42, 0x49, 0x9b, 0xbd, 0x27, 0x99, 0x8d, 0xbc,
		    0x17, 0xd4, 0x13, 0xbc, 0x75, 0xca, 0xf0, 0x3d, 0x97, 0x5b,
		    0xb5, 0xbd, 0xe0, 0x40, 0xcd, 0xbd, 0x9a, 0x31, 0x12, 0x3d,
		    0x6e, 0x9f, 0xae, 0x3d, 0x44, 0x79, 0x2b, 0xbd, 0x7e, 0x90,
		    0xd8, 0xbd, 0xed, 0x25, 0xab, 0x3d, 0x0f, 0x05, 0x9f, 0x3b,
		    0xc4, 0xc4, 0xae, 0xbd, 0xdc, 0x68, 0x98, 0x3c, 0x69, 0x45,
		    0xaf, 0x3d, 0x27, 0xe2, 0xed, 0xbc, 0xed, 0x2e, 0xbf, 0x3c,
		    0xc9, 0x4b, 0x0b, 0xbe, 0xc7, 0xe4, 0xd9, 0xbd, 0xb8, 0x02,
		    0xe8, 0x3d, 0xa0, 0x9b, 0xa9, 0x3d, 0x87, 0x44, 0x04, 0x3d,
		    0x1e, 0xf2, 0xf1, 0x3d, 0x18, 0xe3, 0xc9, 0xbd, 0xbb, 0x94,
		    0xb1, 0x3d, 0xf0, 0x21, 0x1e, 0xbd, 0x11, 0x6c, 0x9a, 0xbc,
		    0x91, 0x34, 0xe5, 0x3d, 0xb1, 0x06, 0xda, 0x3c, 0xd4, 0xce,
		    0x99, 0xba, 0xe9, 0xbb, 0x2f, 0x3d, 0x8e, 0xa1, 0xfe, 0x3d,
		    0xd0, 0xe1, 0xc2, 0x3d, 0x36, 0x7c, 0x34, 0xbd, 0x11, 0xa9,
		    0xf5, 0xbd, 0xff, 0x88, 0x8e, 0x3c, 0x2f, 0x09, 0x9a, 0xbd,
		    0xec, 0x2a, 0xb4, 0x3d, 0x5a, 0x3d, 0xfe, 0x3d, 0xb8, 0xbf,
		    0xca, 0xbd, 0x22, 0x32, 0x0d, 0x3d, 0xf4, 0xc4, 0x13, 0xbe,
		    0xc8, 0x28, 0x77, 0x3d, 0x7f, 0x04, 0x10, 0xbd, 0xd7, 0x71,
		    0x06, 0x3c, 0x8c, 0x9e, 0x00, 0x3d, 0xac, 0x5c, 0x1e, 0xbd,
		    0xfc, 0x87, 0x06, 0xbe, 0x73, 0xe6, 0xdb, 0xbc, 0xd9, 0x6b,
		    0xbc, 0x3c, 0xa8, 0xd4, 0xe6, 0xbd, 0x5a, 0xe0, 0xa6, 0x3d,
		    0x6e, 0x3f, 0x5b, 0x3c, 0xe4, 0x0d, 0xb3, 0x3d, 0xad, 0x42,
		    0x96, 0xbd, 0x97, 0x73, 0x52, 0x3c, 0x84, 0xad, 0xa7, 0x3c,
		    0xf0, 0x70, 0x91, 0x3d, 0xda, 0x4d, 0x10, 0x3e, 0x53, 0x57,
		    0x69, 0x3d, 0x8d, 0x68, 0x8f, 0x3d, 0xe0, 0xdc, 0xbb, 0xbd,
		    0x4b, 0x93, 0x05, 0x3e, 0x8d, 0xd6, 0x73, 0x3c, 0x0c, 0x5c,
		    0xcd, 0xbd, 0x08, 0xfa, 0x53, 0xbc, 0x62, 0x9b, 0x8c, 0x3d,
		    0xd1, 0x01, 0xf6, 0x3d, 0xaa, 0xec, 0xc1, 0xbb, 0xb3, 0x60,
		    0xdc, 0x3d, 0x5c, 0xed, 0x4c, 0xbd, 0xba, 0x5a, 0x1b, 0x3e,
		    0xa6, 0x4a, 0xa0, 0xbc, 0xc4, 0x17, 0x95, 0xbd, 0x95, 0x4d,
		    0x00, 0xbe, 0xf8, 0x1d, 0x9b, 0xbd, 0x4c, 0x7f, 0xb3, 0x3c,
		    0x9a, 0xff, 0xe3, 0x3d, 0x6e, 0xc2, 0x06, 0xbe, 0xe3, 0x73,
		    0xd0, 0x3c, 0x00, 0xec, 0x15, 0x3e, 0x4a, 0xb7, 0x42, 0xbd,
		    0x80, 0x58, 0xe5, 0x38, 0x4c, 0xc6, 0x95, 0x3c, 0x84, 0x1a,
		    0xe9, 0xbd, 0x97, 0x6d, 0x21, 0x3d, 0x2a, 0x14, 0x63, 0xbd,
		    0x91, 0x9c, 0xf6, 0xbc, 0x3f, 0xcb, 0x7b, 0xbd, 0x0d, 0x4c,
		    0x8a, 0xbd, 0x43, 0xad, 0xc5, 0x3d, 0x9f, 0xd7, 0xa3, 0x3d,
		    0x46, 0x4d, 0xae, 0xb9, 0x4e, 0xb2, 0x15, 0x3e, 0xcf, 0x97,
		    0x80, 0xbd, 0x30, 0x56, 0xe7, 0x3d, 0x02, 0xa8, 0x5a, 0xbd,
		    0x28, 0x23, 0x81, 0x3d, 0xe5, 0xef, 0x04, 0x3e, 0xdc, 0xa4,
		    0xc7, 0xbd, 0x2c, 0xc5, 0x68, 0x3d, 0xe9, 0xa6, 0xfb, 0xbd,
		    0x76, 0xfe, 0x63, 0xbd, 0x9a, 0x07, 0x2d, 0x3e, 0xc0, 0x41,
		    0x6b, 0xbd, 0xb4, 0x8a, 0x0b, 0x3e, 0x0b, 0xd9, 0xd3, 0xbd,
		    0x98, 0x47, 0x97, 0x3d, 0x9a, 0x12, 0x04, 0x3e, 0xcb, 0x32,
		    0x75, 0x3b, 0x43, 0x9d, 0x40, 0x3d, 0xc5, 0x2b, 0x1c, 0x3e,
		    0x89, 0x71, 0x40, 0x3d, 0xec, 0xc3, 0x9e, 0x3c, 0x6b, 0x33,
		    0x10, 0x3e, 0xce, 0x7c, 0x9f, 0x3d, 0x99, 0x73, 0xe5, 0xbd,
		    0x6d, 0x13, 0x0f, 0xbe, 0xc5, 0xf8, 0xd4, 0xbd, 0x3b, 0x96,
		    0xd7, 0x3c, 0x4a, 0xb3, 0xfe, 0x3d, 0x63, 0x48, 0x7b, 0xbd,
		    0x56, 0x4d, 0x83, 0x3d, 0xaa, 0xa1, 0xce, 0xbd, 0x65, 0xfa,
		    0xcf, 0x3d, 0x75, 0x23, 0x28, 0x3d, 0xcd, 0x91, 0xba, 0xbd,
		    0xbb, 0x69, 0x09, 0x3e, 0x39, 0xe7, 0xd8, 0xbd, 0x84, 0xb0,
		    0xdd, 0x3c, 0x88, 0xe0, 0x73, 0xbd, 0x2d, 0xcd, 0x4c, 0x3d,
		    0x7a, 0x2e, 0x48, 0x3c, 0x3a, 0x06, 0xda, 0xbc, 0x9a, 0x1d,
		    0x0c, 0x3d, 0xe5, 0x33, 0x3f, 0x3e, 0x5f, 0x42, 0x74, 0x3d,
		    0x6b, 0x5a, 0xea, 0x3c, 0x87, 0x41, 0x2f, 0xbd, 0x5c, 0x25,
		    0xa4, 0x3d, 0x7e, 0x6d, 0x70, 0x3d, 0x7e, 0x1c, 0x21, 0x3d,
		    0x25, 0x75, 0xbc, 0xbd, 0xf0, 0xa3, 0xe0, 0xbb, 0x71, 0xcb,
		    0xbb, 0x3d, 0x07, 0xf6, 0x60, 0xbd, 0xe7, 0x01, 0xa3, 0x3d,
		    0xa7, 0x33, 0xd5, 0xbd, 0x71, 0x6a, 0x73, 0x3d, 0x1e, 0x6b,
		    0xf5, 0x3d, 0x4c, 0x26, 0xdd, 0x3d, 0x03, 0x70, 0x11, 0x3e,
		    0xe2, 0x98, 0x06, 0xbd, 0x72, 0xc7, 0xb4, 0x3d, 0x9e, 0xfb,
		    0x77, 0xbd, 0x96, 0x76, 0xd2, 0xbd, 0x18, 0x08, 0xe0, 0xbb,
		    0xc8, 0x94, 0xaa, 0x3d, 0xd4, 0xd2, 0x27, 0x3c, 0xf4, 0x5d,
		    0x47, 0xbd, 0x9a, 0x3b, 0x2f, 0x3e, 0x46, 0x06, 0xce, 0x3c,
		    0xac, 0x89, 0xcf, 0x3d, 0x99, 0xac, 0xa6, 0x3d, 0x38, 0x26,
		    0x81, 0x39, 0x0b, 0x53, 0xd4, 0x3d, 0x2d, 0xf0, 0xe0, 0x3c,
		    0xab, 0xf5, 0x31, 0x3e, 0x6f, 0xdb, 0xa2, 0x3d, 0xdb, 0xa2,
		    0xa1, 0xbc, 0xe6, 0x03, 0x55, 0xbd, 0x6b, 0x77, 0x3c, 0xbd,
		    0x6a, 0x53, 0x95, 0xbd, 0xe6, 0xc8, 0xad, 0xbd, 0x43, 0xad,
		    0x91, 0xbd, 0xb2, 0x7d, 0x78, 0x3d, 0x7a, 0x0e, 0xa9, 0x3d,
		    0xac, 0xc6, 0xff, 0x3c, 0x15, 0xa3, 0xe0, 0x3d, 0xe2, 0xcd,
		    0xca, 0x3a, 0xad, 0x5a, 0x50, 0x3d, 0xac, 0xc5, 0xcc, 0xbc,
		    0xb8, 0xc3, 0xf2, 0xbd, 0x7c, 0x0c, 0x36, 0xbd, 0x96, 0x6b,
		    0x3e, 0xbd, 0x3e, 0x68, 0x96, 0x3c, 0xe6, 0x87, 0x47, 0xbd,
		    0x78, 0x25, 0x09, 0x3d, 0x84, 0xaf, 0xe5, 0xbc, 0x27, 0x70,
		    0x1f, 0xbd, 0x5d, 0xd0, 0x0e, 0x3e, 0xc9, 0xb8, 0x42, 0x3d,
		    0xd9, 0x4b, 0x04, 0x3e, 0x6b, 0x75, 0x0a, 0xbe, 0x98, 0x04,
		    0xee, 0x3d, 0xda, 0x5d, 0xe7, 0xbd, 0xf0, 0x4d, 0xb6, 0xbc,
		    0x14, 0xf4, 0x14, 0x3e, 0x0a, 0xae, 0x4a, 0xbd, 0xd9, 0xf5,
		    0xef, 0x3d, 0x9d, 0xee, 0x9a, 0x3d, 0x9a, 0x25, 0x00, 0xbe,
		    0xae, 0x57, 0x0f, 0x3e, 0x21, 0xfd, 0x0e, 0x3d, 0x32, 0x16,
		    0xf2, 0xbb, 0x3c, 0x1a, 0x13, 0xbd, 0xfd, 0x39, 0x7e, 0x3d,
		    0xa0, 0x7b, 0xda, 0x3d, 0xe8, 0xf0, 0xd6, 0xbd, 0x3e, 0x03,
		    0x84, 0x3d, 0x64, 0x40, 0xdb, 0x3d, 0x6a, 0x31, 0x71, 0x3d,
		    0x2a, 0xea, 0xc7, 0x3d, 0xca, 0x15, 0x5a, 0xbc, 0xd5, 0x28,
		    0x73, 0xbd, 0x71, 0xb9, 0xe3, 0xbc, 0xc8, 0x47, 0xbb, 0xbc,
		    0x49, 0x10, 0x85, 0x3d, 0x66, 0xd9, 0x79, 0xbd, 0x92, 0xd7,
		    0xf4, 0x3d, 0xf6, 0x6a, 0xbf, 0xbd, 0xd4, 0x10, 0xb7, 0x3d,
		    0x25, 0x0c, 0xd9, 0xbd, 0x28, 0x32, 0xef, 0x3d, 0xbf, 0x47,
		    0xe6, 0x3d, 0x9d, 0x9d, 0x8c, 0x3d, 0x59, 0xb6, 0x25, 0xbd,
		    0x90, 0x71, 0x77, 0xbd, 0xe1, 0x0d, 0xcd, 0x3c, 0x85, 0x24,
		    0xd9, 0x3d, 0x0e, 0xec, 0xf2, 0x3d, 0xc3, 0x80, 0x67, 0x3d,
		    0x42, 0xff, 0xb5, 0x3c, 0x24, 0xde, 0xea, 0xbd, 0x58, 0x67,
		    0xfa, 0x3d, 0xd6, 0xec, 0x98, 0x3c, 0xc9, 0x60, 0x85, 0x3d,
		    0xf4, 0x47, 0x0e, 0xbe, 0x56, 0xd8, 0x04, 0x3e, 0xc5, 0x91,
		    0xc6, 0xbc, 0xaa, 0xc3, 0x07, 0x3e, 0x3b, 0xc5, 0xdf, 0x3d,
		    0x89, 0xb3, 0x83, 0xbc, 0x1d, 0x9b, 0xf9, 0x3d, 0xb4, 0xde,
		    0xaf, 0x3d, 0x6f, 0x88, 0xb3, 0xbd, 0x9a, 0xbb, 0xaf, 0x3d,
		    0x00, 0xae, 0x61, 0x3d, 0x04, 0x08, 0xbf, 0x3d, 0x4e, 0x46,
		    0x8d, 0x3d, 0x70, 0xdb, 0xf4, 0xbd, 0x2b, 0xb2, 0xf7, 0x3d,
		    0x6b, 0x8f, 0x5e, 0xbc, 0x17, 0x6a, 0x95, 0x3d, 0xfa, 0x0e,
		    0xd1, 0xbb, 0xea, 0xc5, 0x6a, 0x3c, 0xad, 0xfb, 0x01, 0xbe,
		    0x3b, 0x38, 0xe5, 0x3d, 0xde, 0x40, 0x0b, 0x3e, 0x66, 0x39,
		    0x96, 0xbd, 0x39, 0xe7, 0xe2, 0xbd, 0x45, 0x0a, 0x59, 0x3d,
		    0x95, 0xe8, 0xbb, 0x3d, 0x48, 0x5b, 0x82, 0x3d, 0x43, 0x00,
		    0xca, 0xbd, 0x36, 0x6c, 0xe7, 0xbd, 0x0e, 0x6e, 0x07, 0xbc,
		    0x33, 0x4c, 0xb8, 0x3d, 0xf7, 0x1c, 0x96, 0x3d, 0x58, 0xa5,
		    0xc1, 0x3c, 0x1e, 0x9a, 0x0e, 0xbe, 0xd1, 0x8f, 0xa5, 0xbd,
		    0xfe, 0x7f, 0x05, 0xbe, 0x20, 0xeb, 0x26, 0x3e, 0xbc, 0x55,
		    0x05, 0xbd, 0xf8, 0x9e, 0x0c, 0x3e, 0xef, 0x52, 0x03, 0xbe,
		    0xb8, 0x96, 0x42, 0xbc, 0x60, 0xf7, 0x10, 0x3e, 0x53, 0x90,
		    0xe9, 0xbb, 0xa9, 0x5c, 0xdc, 0x3d, 0x8a, 0x7f, 0x1d, 0x3e,
		    0x10, 0x30, 0xae, 0x3c, 0xe0, 0xb4, 0xbd, 0x3d, 0xc2, 0x30,
		    0x11, 0x3c, 0xae, 0x9f, 0x02, 0x3d, 0xdd, 0x65, 0x43, 0xbd,
		    0x8f, 0x00, 0xae, 0xbd, 0x6b, 0xf5, 0x26, 0xba, 0x34, 0x2c,
		    0x06, 0xbd, 0x9c, 0x6c, 0x9a, 0xbd, 0x03, 0x8b, 0xb7, 0xbd,
		    0x20, 0xb3, 0x67, 0xbd, 0xbb, 0x4b, 0x87, 0xbd, 0x7f, 0x8a,
		    0x32, 0x3d, 0x84, 0x03, 0x30, 0xbd, 0xe9, 0xa9, 0x68, 0x3d,
		    0x0c, 0x8e, 0x7f, 0xbd, 0xca, 0xc7, 0x01, 0x3e, 0x45, 0xb4,
		    0x9a, 0x3d, 0x9a, 0x57, 0xb4, 0x3c, 0xf7, 0xfc, 0xd4, 0xbd,
		    0x17, 0x87, 0xa2, 0x3c, 0x6d, 0x10, 0x84, 0x3d, 0xb4, 0x05,
		    0xba, 0x3d, 0xc7, 0x3b, 0x9e, 0xbc, 0x59, 0x3f, 0x2b, 0x3d,
		    0x81, 0x34, 0x00, 0xbe, 0x2a, 0x3e, 0x0e, 0xbe, 0x46, 0x49,
		    0x9c, 0xbc, 0xd7, 0xe8, 0x89, 0x3d, 0x71, 0x1e, 0xb1, 0x3c,
		    0x4d, 0x01, 0xc1, 0x3d, 0x40, 0xd8, 0xf0, 0xbd, 0x1e, 0x3d,
		    0x8a, 0x3c, 0xf0, 0x7c, 0x5a, 0xbd, 0xcb, 0xfa, 0xfb, 0xbd,
		    0xa5, 0x38, 0x8e, 0x3d, 0x4a, 0x4c, 0x90, 0xbb, 0x77, 0xa0,
		    0x5d, 0x3d, 0x87, 0x4a, 0x86, 0xbd, 0x56, 0x60, 0xf1, 0x3d,
		    0x22, 0x91, 0xa4, 0x3d, 0x8d, 0x5f, 0x20, 0x3c, 0x4e, 0xfd,
		    0x13, 0xbe, 0xa0, 0xc2, 0x17, 0x3c, 0xa3, 0x31, 0xf2, 0x3d,
		    0xa3, 0x19, 0xe9, 0x3d, 0x1d, 0x85, 0xce, 0x3b, 0x76, 0x00,
		    0xe5, 0x3d, 0xe3, 0x89, 0x07, 0x3e, 0x26, 0x53, 0x7e, 0xbd,
		    0x2c, 0x35, 0x07, 0x3e, 0xb1, 0x1d, 0x2b, 0x3c, 0xca, 0x08,
		    0x9b, 0x3d, 0x3a, 0xc7, 0xe3, 0x3d, 0x27, 0x5f, 0x87, 0x3d,
		    0xed, 0x0e, 0xe1, 0x3d, 0x8f, 0x44, 0xd9, 0x3c, 0x84, 0xeb,
		    0xaa, 0x3d, 0xe1, 0xa8, 0xc7, 0x3d, 0x65, 0xed, 0xc1, 0x3c,
		    0x55, 0x81, 0x13, 0x3d, 0xd6, 0x54, 0x02, 0x3d, 0xf8, 0x73,
		    0x06, 0xbe, 0x45, 0xad, 0x3f, 0xbd, 0xce, 0x39, 0xf2, 0xbd,
		    0x78, 0x08, 0xa7, 0xbd, 0xf4, 0xbc, 0x86, 0x3d, 0xcf, 0x2b,
		    0x30, 0xbd, 0x1d, 0x92, 0xb4, 0x3d, 0x79, 0x48, 0x26, 0x3d,
		    0xa7, 0x83, 0xae, 0x3d, 0x3a, 0xf7, 0xed, 0x3d, 0x8f, 0x7e,
		    0x32, 0xbc, 0xd6, 0xcc, 0x3b, 0xba, 0xce, 0x1a, 0xd9, 0x3a,
		    0xe8, 0x8d, 0xb2, 0x3d, 0x54, 0xb0, 0x13, 0x3e, 0xf0, 0xf7,
		    0xee, 0xbd, 0xec, 0x8b, 0x07, 0xbc, 0x2f, 0xb3, 0x1f, 0xbd,
		    0x6e, 0x9d, 0xa4, 0x3d, 0x47, 0x70, 0xf6, 0x3d, 0x5e, 0xfa,
		    0x9c, 0x3c, 0x28, 0x8c, 0xbd, 0x3d, 0xfb, 0x75, 0x97, 0x3d,
		    0x78, 0x93, 0x7d, 0x3b, 0xdf, 0x59, 0x2d, 0xbd, 0xc0, 0x32,
		    0xe9, 0xbd, 0x3b, 0x74, 0xd1, 0x3d, 0xfa, 0x20, 0xb9, 0xbd,
		    0x87, 0x74, 0x06, 0xbe, 0xae, 0x3d, 0x2e, 0xbd, 0x3a, 0xd9,
		    0x8e, 0xbd, 0x65, 0xe6, 0xda, 0x3d, 0x5f, 0xea, 0x82, 0xbd,
		    0xc5, 0x0f, 0xbf, 0x3d, 0xb9, 0xc2, 0xfb, 0xbd, 0xe1, 0x85,
		    0xf3, 0x3d, 0x4e, 0x5b, 0x2a, 0xbd, 0x03, 0x44, 0x84, 0x3d,
		    0x93, 0xfe, 0x5a, 0xbd, 0xae, 0x96, 0x7f, 0x3d, 0xcd, 0x12,
		    0x8e, 0xbd, 0xe2, 0x31, 0xd5, 0xbc, 0xcb, 0x5d, 0xbb, 0xbd,
		    0x42, 0xd2, 0x45, 0xbd, 0xd5, 0x30, 0xd6, 0x3d, 0xd4, 0x68,
		    0xb5, 0x3d, 0xf1, 0xef, 0xda, 0xbd, 0xda, 0x60, 0x12, 0x3d,
		    0xec, 0xaa, 0xc1, 0x3d, 0x11, 0xd3, 0xe4, 0xbd, 0x71, 0x9b,
		    0x77, 0x3c, 0x56, 0x96, 0xc6, 0xbd, 0xc3, 0xd3, 0xff, 0xbc,
		    0x95, 0x35, 0x56, 0xbd, 0x88, 0xfa, 0xba, 0xbd, 0x7f, 0xf1,
		    0x0e, 0xbe, 0x81, 0x2d, 0x4e, 0x3b, 0xd5, 0x59, 0x4e, 0x3d,
		    0x57, 0xfb, 0x0c, 0xbd, 0x09, 0xc2, 0x9e, 0xbd, 0xe2, 0xdc,
		    0x3b, 0xbd, 0x41, 0x4c, 0xf7, 0xbc, 0xea, 0x80, 0xcf, 0xbd,
		    0x9c, 0x3e, 0xf4, 0x3d, 0x65, 0x51, 0x87, 0xbd, 0x6c, 0xa4,
		    0x4b, 0xbd, 0x9b, 0x0a, 0x00, 0xbe, 0xe3, 0x6e, 0xb2, 0x3d,
		    0xef, 0x09, 0xf2, 0xbd, 0x26, 0x36, 0x24, 0x3d, 0x2c, 0x41,
		    0x02, 0xbd, 0x57, 0xae, 0x95, 0x3d, 0x3a, 0x72, 0xe5, 0x3d,
		    0x71, 0x83, 0x1f, 0x3e, 0xee, 0x31, 0x03, 0x3e, 0x9d, 0xb7,
		    0x95, 0xbd, 0x1d, 0xea, 0x3e, 0xbd, 0x85, 0x59, 0x6c, 0x3c,
		    0x38, 0x16, 0x1d, 0x3e, 0x1b, 0x1e, 0x6c, 0xbc, 0x9b, 0x9e,
		    0x04, 0x3e, 0x16, 0x62, 0x1b, 0x3e, 0xeb, 0x65, 0x16, 0x3e,
		    0x6f, 0x8b, 0xf8, 0x3d, 0x9f, 0x3a, 0xc1, 0x3d, 0xf7, 0x85,
		    0xf9, 0x3c, 0x47, 0x68, 0x7b, 0x3d, 0xf4, 0xba, 0x6f, 0x3d,
		    0x0a, 0x3b, 0x9d, 0xbd, 0xcd, 0x67, 0xba, 0x3d, 0x6a, 0x73,
		    0x25, 0xbd, 0x52, 0x75, 0xf4, 0xbd, 0xbf, 0x2d, 0x9d, 0xbc,
		    0x42, 0xfe, 0xe1, 0x3d, 0x0e, 0x75, 0x04, 0xbe, 0x72, 0x0a,
		    0x2d, 0x3d, 0x49, 0x70, 0xd9, 0x3d, 0xd5, 0x95, 0x86, 0xbd,
		    0xa6, 0xf3, 0x12, 0x3e, 0x56, 0xe9, 0x06, 0x3e, 0x77, 0x53,
		    0xdb, 0x3d, 0x0a, 0xfb, 0xb8, 0x3d, 0xd3, 0x84, 0xbf, 0xbd,
		    0xf7, 0x69, 0x9e, 0x3d, 0x65, 0x8e, 0x50, 0xbd, 0xaa, 0xb2,
		    0x15, 0x3e, 0x47, 0xb2, 0x10, 0xbe, 0x50, 0xbe, 0x14, 0xbd,
		    0x26, 0xab, 0x97, 0x3d, 0xc5, 0x72, 0x16, 0x3d, 0x64, 0xf6,
		    0xfd, 0xbb, 0xb5, 0x99, 0x3c, 0xbd, 0xc5, 0x9f, 0xd2, 0x3d,
		    0x2b, 0x12, 0xf0, 0x3d, 0x03, 0x11, 0x20, 0x3d, 0x43, 0x6a,
		    0xfc, 0x3d, 0xee, 0xf8, 0x8a, 0xbd, 0x26, 0x34, 0x87, 0xbc,
		    0x27, 0x93, 0xc8, 0x3d, 0xeb, 0x28, 0x84, 0xbd, 0x09, 0x41,
		    0x95, 0x3c, 0xda, 0x5d, 0x70, 0x3d, 0x4f, 0x85, 0xc6, 0xbd,
		    0xfe, 0x93, 0xa3, 0xbd, 0x3b, 0xcc, 0x96, 0x3d, 0xb0, 0x26,
		    0x3f, 0x3d, 0xbf, 0x79, 0xca, 0x3c, 0xd2, 0xf5, 0xdb, 0xbd,
		    0x9c, 0x3b, 0xcb, 0xbd, 0x1b, 0x09, 0xb7, 0x3d, 0x6c, 0x73,
		    0x1d, 0xbd, 0xd5, 0x56, 0xf8, 0x3d, 0xc0, 0xa2, 0x74, 0xbc,
		    0x39, 0x37, 0x0d, 0xbe, 0xc0, 0x35, 0xee, 0xbd, 0x3d, 0xe3,
		    0xbd, 0x3d, 0xd2, 0xe4, 0x85, 0xbd, 0x5e, 0x02, 0xca, 0x3d,
		    0x79, 0x4f, 0x7c, 0x3d, 0xeb, 0x10, 0xb9, 0xbd, 0x28, 0x66,
		    0x8f, 0x3d, 0xff, 0xe6, 0x73, 0xbb, 0xb8, 0x92, 0x9a, 0x3d,
		    0xeb, 0x28, 0xf5, 0x3d, 0xf6, 0xb8, 0xfb, 0xbd, 0x17, 0x4a,
		    0x0d, 0xbd, 0xb7, 0xcb, 0x60, 0x3d, 0xd4, 0x74, 0x51, 0xbd,
		    0x97, 0x30, 0x0c, 0xbe, 0x03, 0x94, 0x49, 0x3c, 0xda, 0xc3,
		    0x52, 0x3d, 0x39, 0x66, 0x69, 0xbd, 0x6f, 0xe4, 0x1e, 0x3c,
		    0x26, 0x8d, 0x49, 0xbd, 0xa3, 0xc7, 0xd0, 0x3d, 0xf8, 0x84,
		    0x08, 0x3e, 0xfb, 0x26, 0x57, 0xbd, 0xf7, 0xf9, 0x02, 0xbe,
		    0x49, 0x70, 0xaf, 0xbd, 0xeb, 0xda, 0x85, 0xbb, 0x7e, 0xfc,
		    0x0d, 0x3e, 0x5f, 0x9d, 0x06, 0x3e, 0x11, 0x0f, 0xea, 0xbd,
		    0x26, 0xcc, 0xc1, 0x3d, 0x1e, 0xee, 0x98, 0xbd, 0x40, 0x04,
		    0x05, 0xbc, 0xd6, 0xeb, 0x8b, 0x3d, 0x3e, 0x70, 0x79, 0x3d,
		    0x24, 0x90, 0x9e, 0xbd, 0x1f, 0xa3, 0xb8, 0xbd, 0x2f, 0xe6,
		    0xd4, 0xbd, 0xde, 0x9e, 0xe1, 0x3d, 0x6a, 0xc7, 0xeb, 0xbc,
		    0xb4, 0x18, 0x81, 0x3d, 0x7b, 0x3e, 0x8d, 0xbd, 0x92, 0x05,
		    0xd4, 0xbc, 0xd1, 0x48, 0xaf, 0xbd, 0x1f, 0xd0, 0xd4, 0xbc,
		    0x7e, 0x81, 0xc8, 0x3d, 0xff, 0xaa, 0xde, 0xbd, 0x67, 0x09,
		    0x69, 0x3d, 0x93, 0x89, 0x04, 0x3e, 0x0e, 0xda, 0xeb, 0x3c,
		    0x2c, 0x34, 0x0a, 0xbe, 0xe5, 0x31, 0x1c, 0x3c, 0xac, 0xe3,
		    0xd7, 0xbd, 0x56, 0xeb, 0xdd, 0x3d, 0xb3, 0xd0, 0x76, 0x3d,
		    0x09, 0x31, 0x5c, 0xbd, 0x5c, 0xf5, 0x8d, 0xbd, 0x67, 0xd4,
		    0x9d, 0x3a, 0x21, 0x6a, 0x1a, 0x3d, 0x16, 0xa9, 0x7b, 0xbb,
		    0x81, 0xfa, 0x8d, 0xbd, 0xb1, 0xee, 0x05, 0x3d, 0x0b, 0xd6,
		    0xd6, 0x3d, 0xad, 0xbe, 0xa6, 0x3d, 0x98, 0xe9, 0xc4, 0x3d,
		    0xfe, 0x60, 0x3a, 0x3d, 0x1c, 0xcd, 0x8f, 0xbc, 0x47, 0x96,
		    0x13, 0xbe, 0x7d, 0x21, 0xc1, 0x3c, 0x63, 0xa4, 0xeb, 0xbd,
		    0x0d, 0x18, 0xfc, 0x3d, 0x2f, 0x69, 0xaa, 0x3c, 0x4b, 0xf3,
		    0x9e, 0x3d, 0xfd, 0x5e, 0x09, 0xbd, 0x72, 0x34, 0x6a, 0xbd,
		    0xf2, 0x12, 0x08, 0xbd, 0xdc, 0x36, 0xa8, 0x3d, 0x78, 0x29,
		    0x85, 0x3d, 0x62, 0x8d, 0x19, 0x3d, 0x60, 0x83, 0xcc, 0x3d,
		    0xdc, 0x92, 0x02, 0xbe, 0x29, 0x63, 0xb4, 0xbd, 0x33, 0x98,
		    0xf1, 0x3d, 0x7a, 0x53, 0x20, 0x3d, 0x7a, 0x68, 0xd6, 0x3d,
		    0x25, 0x69, 0x81, 0xbd, 0x9e, 0xe4, 0xae, 0x3d, 0x53, 0xb0,
		    0x82, 0x3d, 0xcb, 0x05, 0x32, 0x3d, 0x92, 0x43, 0x13, 0xbd,
		    0xc0, 0xc5, 0xc7, 0x3d, 0xd9, 0x84, 0x09, 0xbe, 0xc9, 0xce,
		    0x94, 0xbd, 0x80, 0x88, 0x61, 0x3d, 0x1f, 0x01, 0x01, 0xbe,
		    0x9f, 0xc6, 0xc2, 0xbd, 0x27, 0xa0, 0x09, 0xbe, 0x65, 0x56,
		    0xdc, 0x3d, 0x28, 0x5e, 0x0f, 0xbd, 0xad, 0xd8, 0x2b, 0xbd,
		    0x6c, 0x30, 0x21, 0x3d, 0xec, 0xa4, 0x89, 0xbd, 0x6a, 0x82,
		    0x7a, 0xbd, 0xfa, 0x6d, 0x6f, 0xbd, 0x0b, 0x8c, 0x01, 0xbe,
		    0xe9, 0xfa, 0x42, 0x3d, 0x24, 0x08, 0xdf, 0x3d, 0x32, 0xd5,
		    0xbb, 0x3d, 0x37, 0x81, 0x3c, 0xbd, 0xf6, 0x6d, 0xfc, 0xbd,
		    0xa2, 0x3b, 0x3a, 0x3d, 0x0c, 0x89, 0xaf, 0xbd, 0xa8, 0x76,
		    0xf9, 0x3d, 0xcc, 0xc0, 0x96, 0xbc, 0x5b, 0x18, 0xa5, 0x3d,
		    0x2e, 0x72, 0xbd, 0x3b, 0xe5, 0x6f, 0xe3, 0xbd, 0x4d, 0x08,
		    0x8b, 0xbb, 0x5c, 0xce, 0xfa, 0xbd, 0x64, 0xb1, 0xdf, 0x3d,
		    0xdd, 0x47, 0xe0, 0x3c, 0xe0, 0xea, 0x6a, 0x3d, 0x27, 0xd3,
		    0x05, 0xbe, 0x33, 0x6b, 0xa6, 0xbd, 0x2e, 0x9f, 0x84, 0x3d,
		    0x58, 0xa7, 0xf3, 0xbd, 0x4d, 0x94, 0x8c, 0xbd, 0xf9, 0x56,
		    0x8a, 0xbc, 0xaa, 0xb6, 0x09, 0x3d, 0xb5, 0x95, 0x05, 0x3e,
		    0xd7, 0x50, 0xa5, 0x3d, 0xb8, 0x86, 0x63, 0x3c, 0xeb, 0xec,
		    0x4f, 0x3d, 0xb2, 0xf3, 0x5a, 0xbd, 0x3c, 0xd5, 0xb3, 0x3d,
		    0xde, 0x35, 0xe5, 0xbd, 0x8a, 0x44, 0x49, 0x3d, 0x2b, 0x86,
		    0xfb, 0xbd, 0xb5, 0xc3, 0xf2, 0xbd, 0x62, 0xe4, 0x3e, 0xbd,
		    0x2c, 0xd2, 0xf5, 0xbd, 0xcb, 0xb1, 0xd4, 0x3d, 0xb8, 0x60,
		    0x88, 0xbc, 0x82, 0x66, 0x8d, 0x3d, 0x1d, 0xb1, 0x10, 0xbe,
		    0xba, 0x78, 0xcf, 0x3d, 0xb8, 0x59, 0x69, 0x3d, 0x48, 0xfc,
		    0x8f, 0xbc, 0x1c, 0x10, 0xe9, 0xbd, 0x9e, 0xcc, 0xdf, 0xbd,
		    0x71, 0x3c, 0xb4, 0xbd, 0x16, 0x6c, 0xf7, 0x3d, 0xb3, 0x33,
		    0x89, 0x3d, 0x4b, 0xd6, 0x7c, 0x3d, 0xa8, 0xc6, 0x67, 0xbd,
		    0x9a, 0x11, 0x37, 0xbd, 0xfd, 0xbe, 0x95, 0x3d, 0xce, 0x51,
		    0xe0, 0x3d, 0xa1, 0x04, 0xb4, 0xbd, 0xc3, 0x38, 0xf4, 0xbd,
		    0x6c, 0x96, 0x09, 0xbe, 0x65, 0x1c, 0xbb, 0x3d, 0xb9, 0x46,
		    0x3d, 0x3d, 0xb8, 0x03, 0xb9, 0x3d, 0x2d, 0x3c, 0x88, 0xbd,
		    0x8c, 0x4d, 0x43, 0x3d, 0x48, 0xeb, 0xec, 0x3d, 0xa7, 0x9b,
		    0xc1, 0x3d, 0x05, 0x5a, 0xc2, 0x3c, 0x68, 0xa8, 0xe4, 0x3d,
		    0x6b, 0xf7, 0xf2, 0xbc, 0x8e, 0xb8, 0xe8, 0xbd, 0x5f, 0x90,
		    0xb5, 0x3d, 0x78, 0xa2, 0x00, 0x3d, 0x4f, 0x6e, 0xd3, 0xbd,
		    0xee, 0xae, 0x02, 0x3e, 0x62, 0x6a, 0x18, 0x3d, 0x56, 0x27,
		    0xad, 0x3d, 0xf7, 0x1b, 0x9d, 0xbc, 0x64, 0xa1, 0xce, 0x3d,
		    0xde, 0x68, 0xb8, 0xbd, 0xc4, 0x5a, 0xa4, 0x3c, 0xcf, 0x85,
		    0x8c, 0xbc, 0x7a, 0x9a, 0x02, 0x3d, 0x97, 0x41, 0xa4, 0xbd,
		    0x77, 0xba, 0x28, 0x3c, 0x8a, 0xc6, 0x15, 0xbe, 0x05, 0x4a,
		    0xb7, 0xbd, 0xd1, 0x57, 0x98, 0xbd, 0xec, 0xd9, 0x0d, 0xbd,
		    0xe4, 0x29, 0x0c, 0x3d, 0x5f, 0x57, 0xc8, 0x3d, 0x01, 0x01,
		    0x04, 0xbd, 0x30, 0xba, 0xb2, 0xbd, 0x1b, 0x56, 0xbe, 0x3d,
		    0x0b, 0x58, 0xcc, 0x3d, 0xcf, 0x1a, 0x95, 0xbd, 0x76, 0xf2,
		    0xf7, 0xbd, 0xbc, 0x17, 0xb3, 0xbd, 0x69, 0x78, 0xbd, 0x3d,
		    0xd7, 0xe8, 0x59, 0x3d, 0x2a, 0xd7, 0xfa, 0x3d, 0x6a, 0xd3,
		    0xb0, 0x3d, 0x91, 0x96, 0x18, 0xbd, 0x6b, 0x23, 0xce, 0xbc,
		    0xc5, 0x54, 0xdd, 0xbd, 0x0d, 0xbe, 0xfc, 0xbb, 0xed, 0x3e,
		    0x6f, 0x3d, 0xc1, 0x72, 0x95, 0x3d, 0x26, 0x6d, 0xb0, 0x3d,
		    0x2d, 0x84, 0xd3, 0x3d, 0x58, 0x8c, 0xec, 0xbc, 0x2a, 0x9a,
		    0x59, 0xbc, 0x90, 0x9e, 0xe8, 0x3c, 0x84, 0x50, 0x88, 0x3d,
		    0xda, 0x39, 0x01, 0x3d, 0x38, 0x43, 0xf1, 0xbc, 0x0f, 0x27,
		    0x5e, 0xbd, 0xf1, 0xae, 0xf1, 0xbd, 0xd4, 0xff, 0xb0, 0x3d,
		    0x18, 0x7b, 0xf7, 0x3d, 0xd8, 0x19, 0x06, 0xbe, 0xa3, 0x90,
		    0x5b, 0xbd, 0xb0, 0xaf, 0x3c, 0xbd, 0x8d, 0xa8, 0xae, 0xbd,
		    0xad, 0xf2, 0x1b, 0x3d, 0xe4, 0x51, 0xf1, 0x3d, 0xee, 0x30,
		    0x51, 0xbd, 0xe2, 0xf2, 0x5f, 0xbd, 0x96, 0x47, 0x62, 0xbd,
		    0xb6, 0xcb, 0xc3, 0xbc, 0xa6, 0xca, 0x88, 0xbc, 0x84, 0xa9,
		    0x60, 0x3d, 0xa4, 0x93, 0x13, 0xbe, 0xc6, 0x2a, 0x9e, 0x3d,
		    0x09, 0x16, 0x90, 0xbd, 0x06, 0x3a, 0x58, 0xbd, 0x1e, 0x5a,
		    0xa1, 0xbd, 0xee, 0x67, 0x6a, 0x3d, 0x9b, 0x8f, 0x00, 0xbd,
		    0x94, 0x51, 0xac, 0xbd, 0x34, 0x31, 0xf3, 0xbc, 0xa7, 0x7b,
		    0x52, 0x3c, 0xb3, 0x86, 0xc7, 0x3d, 0x1c, 0x30, 0x01, 0x3e,
		    0x2e, 0x4e, 0xe0, 0x3d, 0x85, 0x56, 0x24, 0xbd, 0x91, 0xb8,
		    0x6f, 0xbd, 0x5a, 0x33, 0x89, 0x3d, 0x12, 0x53, 0xc0, 0xbd,
		    0xd8, 0x31, 0x27, 0x3d, 0x82, 0x89, 0x41, 0x3d, 0xac, 0x13,
		    0x10, 0xbc, 0xfb, 0xb5, 0xe6, 0x3d, 0x22, 0x7d, 0xbd, 0xbc,
		    0x54, 0x83, 0xe6, 0x3d, 0x04, 0xbb, 0x5c, 0xbd, 0xa6, 0xef,
		    0xae, 0xbc, 0x5e, 0x3a, 0xc0, 0x3d, 0xb6, 0x22, 0xcd, 0xbb,
		    0x47, 0x4d, 0x0c, 0x3d, 0xdb, 0xc3, 0x83, 0xbd, 0xe9, 0x8f,
		    0xd6, 0x3c, 0x1d, 0xbe, 0x28, 0x3d, 0x03, 0x18, 0x4e, 0xbd,
		    0xc3, 0x10, 0x95, 0xbc, 0x44, 0x1f, 0x0b, 0xbe, 0x84, 0x3a,
		    0x7c, 0x3d, 0x17, 0x2b, 0x00, 0xbe, 0x8c, 0x43, 0x0c, 0x3e,
		    0xde, 0x82, 0x63, 0x3c, 0x98, 0x90, 0xed, 0xbd, 0xb9, 0xb2,
		    0x00, 0xbe, 0xdc, 0xb7, 0xcd, 0x3d, 0x89, 0xf7, 0xdd, 0xbc,
		    0x0f, 0xc5, 0xcb, 0xbd, 0x59, 0x22, 0xdc, 0xbd, 0xfb, 0xff,
		    0xe6, 0xbc, 0xd1, 0x83, 0x38, 0x3d, 0xfd, 0x21, 0xc9, 0x3c,
		    0x3c, 0x94, 0xc9, 0xbd, 0x12, 0x38, 0xc7, 0x3d, 0x2f, 0xfb,
		    0xb5, 0xbd, 0x75, 0xdd, 0x61, 0xbd, 0xc1, 0x0b, 0xc5, 0xbd,
		    0x07, 0x78, 0xfc, 0xbd, 0x59, 0x90, 0xfe, 0xbd, 0xff, 0xfe,
		    0x11, 0xbe, 0x1d, 0x3c, 0x16, 0xbe, 0xd7, 0x13, 0x8b, 0x3d,
		    0x3f, 0xd2, 0x86, 0xbc, 0xc7, 0xa2, 0x6e, 0x3d, 0x7e, 0x00,
		    0xdc, 0x3d, 0x76, 0xef, 0xbe, 0x3d, 0x9e, 0x55, 0x43, 0xbd,
		    0xca, 0x51, 0x6e, 0x3d, 0xc3, 0x1b, 0x90, 0xbd, 0xb6, 0x1e,
		    0x39, 0x3c, 0x74, 0xb5, 0xf7, 0xbd, 0x36, 0xe7, 0x7f, 0xbd,
		    0x34, 0x90, 0x78, 0xbd, 0x07, 0xb2, 0xdc, 0x3d, 0x0b, 0x5e,
		    0xe5, 0x3c, 0x3c, 0x88, 0xf8, 0x3d, 0x0c, 0xc3, 0x0c, 0x3e,
		    0x75, 0x03, 0x1a, 0x3d, 0xa2, 0xfb, 0x7c, 0x3d, 0x3f, 0x3c,
		    0x6d, 0x3d, 0x80, 0x68, 0xc0, 0xbd, 0x8e, 0xbc, 0x12, 0xbe,
		    0x9e, 0x41, 0x4c, 0xbd, 0x71, 0x8e, 0xdd, 0xbd, 0x61, 0xd8,
		    0xba, 0xbd, 0x0a, 0x29, 0x1d, 0xbd, 0x61, 0xa8, 0x4e, 0x3d,
		    0xc4, 0x50, 0x21, 0x3d, 0x9c, 0xfd, 0xe6, 0x3d, 0x59, 0xf0,
		    0x81, 0x3d, 0xcc, 0xdf, 0xce, 0xbc, 0x00, 0x25, 0x8e, 0x3d,
		    0x67, 0x51, 0x02, 0xbd, 0x6a, 0x16, 0x61, 0x3d, 0x71, 0xa8,
		    0xc7, 0x3d, 0xf3, 0x6b, 0x1e, 0x3d, 0x43, 0xda, 0xc5, 0xba,
		    0x40, 0x2a, 0xad, 0x3c, 0x7b, 0x53, 0xe2, 0x3d, 0x47, 0x0b,
		    0xb5, 0x3c, 0x5a, 0xd2, 0xd3, 0x3d, 0x38, 0xd3, 0xd1, 0xbd,
		    0x93, 0x83, 0xe1, 0x3d, 0xb3, 0xe1, 0xd5, 0xbc, 0x7a, 0x2a,
		    0xe3, 0xbb, 0xa2, 0x1d, 0x47, 0xbc, 0xf0, 0x52, 0x9f, 0xbd,
		    0x2c, 0x9c, 0xca, 0xbd, 0x93, 0xdb, 0xe3, 0xbd, 0xaa, 0x98,
		    0x16, 0xbd, 0x21, 0xe6, 0xe5, 0xbd, 0xff, 0x27, 0xfb, 0xbd,
		    0xa9, 0xb1, 0xd1, 0xbd, 0x9b, 0x16, 0x50, 0x3d, 0xf1, 0xd7,
		    0xc5, 0xbd, 0xe8, 0x11, 0x97, 0xbd, 0x1a, 0x2f, 0x4b, 0xbd,
		    0xc7, 0x9e, 0xd1, 0xbd, 0xcd, 0xa9, 0xb1, 0xbc, 0x0c, 0x75,
		    0x91, 0x3d, 0x84, 0x32, 0x8a, 0xbc, 0xab, 0xc1, 0x8a, 0x3d,
		    0xa4, 0xa3, 0xe0, 0xbc, 0x02, 0xe4, 0x85, 0x3d, 0xfe, 0xe6,
		    0xfb, 0x3d, 0x9a, 0x16, 0x9d, 0xbd, 0x60, 0xb8, 0xb9, 0xbd,
		    0x5c, 0x0b, 0x90, 0x3d, 0xd0, 0xc6, 0xe2, 0x3d, 0xf0, 0x8a,
		    0xfd, 0xbd, 0xe4, 0x25, 0xad, 0xbd, 0x9e, 0xb9, 0x11, 0xbd,
		    0x89, 0x66, 0x09, 0x3d, 0x91, 0xb6, 0x3d, 0xbb, 0x47, 0xda,
		    0xf3, 0x3d, 0x6b, 0xc8, 0xef, 0xbc, 0x50, 0xfd, 0xe1, 0x3d,
		    0xa6, 0xba, 0xe6, 0x3c, 0x02, 0x7b, 0xbb, 0x3d, 0xcb, 0x0b,
		    0xcb, 0x3d, 0x70, 0xad, 0xdb, 0x3d, 0x44, 0x92, 0x69, 0xbd,
		    0x1e, 0xac, 0xf3, 0x3d, 0xeb, 0xc2, 0x3b, 0x3d, 0x53, 0xd9,
		    0xbd, 0x3d, 0x4c, 0xfe, 0x1f, 0x3d, 0x94, 0x8b, 0x2b, 0xbd,
		    0x57, 0xad, 0x87, 0x3d, 0x44, 0xa8, 0x35, 0x3d, 0x42, 0xaa,
		    0x2c, 0x3c, 0x3f, 0x67, 0x57, 0x3b, 0x9c, 0xad, 0x81, 0x3d,
		    0x43, 0x8c, 0xa1, 0x3d, 0x85, 0xce, 0x7c, 0x3d, 0x1f, 0xfd,
		    0xd9, 0xbd, 0x4e, 0xc4, 0x35, 0xbd, 0x9a, 0x24, 0x6a, 0x3d,
		    0x0d, 0xd8, 0xf8, 0xbd, 0x81, 0xb2, 0x98, 0xbd, 0x85, 0xa9,
		    0xe9, 0xbd, 0x38, 0x4c, 0x05, 0x3e, 0x5b, 0x4a, 0xba, 0x3d,
		    0x4e, 0xb3, 0xf5, 0x3d, 0x58, 0x71, 0x93, 0x3c, 0x3c, 0x0a,
		    0x9f, 0xbd, 0xb9, 0x9a, 0xe6, 0xbd, 0xb0, 0x30, 0xf4, 0xbc,
		    0x39, 0x8a, 0x94, 0xbc, 0xa1, 0x9d, 0x8a, 0x3d, 0x0e, 0xfc,
		    0x81, 0x3d, 0xd2, 0xbf, 0x07, 0xbd, 0xcf, 0x72, 0x9b, 0xbd,
		    0x01, 0x56, 0xc8, 0xbd, 0x4b, 0x9a, 0xa1, 0x3d, 0xa9, 0x6b,
		    0x5f, 0x3c, 0x81, 0x30, 0x8e, 0x3d, 0xa6, 0xd1, 0x86, 0x3d,
		    0x06, 0xde, 0x50, 0x3d, 0x29, 0xa3, 0xb6, 0x3d, 0xe5, 0x67,
		    0x83, 0xbd, 0xe8, 0x6c, 0xf9, 0xbc, 0x4d, 0x8f, 0xad, 0xbd,
		    0xce, 0x33, 0xc4, 0xbd, 0x85, 0x75, 0x6f, 0x3d, 0x35, 0x11,
		    0x04, 0xbd, 0x45, 0x36, 0x5c, 0x3d, 0x48, 0x51, 0x88, 0x3d,
		    0x5f, 0xfc, 0x84, 0xbd, 0x8e, 0xeb, 0xcd, 0xbd, 0x11, 0x5e,
		    0xac, 0x3d, 0xa2, 0x59, 0x7a, 0xbd, 0x50, 0x07, 0x0f, 0xbe,
		    0x04, 0x97, 0x03, 0x3e, 0xc4, 0x6c, 0xe9, 0xbb, 0x22, 0xc9,
		    0xe5, 0xbd, 0x14, 0xbc, 0x6c, 0x3b, 0x3d, 0xa7, 0xca, 0x3d,
		    0x09, 0x89, 0x9a, 0xbd, 0xec, 0xd6, 0x69, 0x3d, 0x92, 0x72,
		    0xe2, 0x3d, 0xb9, 0x08, 0x19, 0x3d, 0x09, 0x6a, 0x74, 0x3d,
		    0x8a, 0x8c, 0x55, 0xbd, 0x92, 0x8e, 0x07, 0x3e, 0xf2, 0x37,
		    0x90, 0xbd, 0x4c, 0x26, 0x1d, 0x3c, 0x1e, 0xd3, 0x8e, 0x3d,
		    0x7d, 0x23, 0x2a, 0xbd, 0xf3, 0x3d, 0xb8, 0xbc, 0x45, 0xa1,
		    0xf4, 0x3d, 0xbb, 0x73, 0xe2, 0x3d, 0xda, 0xd6, 0x12, 0x3d,
		    0x19, 0xaf, 0xf5, 0xbd, 0x4e, 0x68, 0x14, 0x3e, 0x66, 0x68,
		    0x25, 0xbd, 0xd4, 0xd0, 0xa0, 0x3c, 0xb5, 0xa3, 0xcd, 0x3d,
		    0xd4, 0x45, 0x30, 0x3c, 0x2c, 0xa3, 0xa8, 0x3c, 0x88, 0x98,
		    0x9e, 0x3d, 0x5e, 0xbf, 0xfa, 0xbd, 0xdd, 0x80, 0xa3, 0xbd,
		    0x36, 0xca, 0x08, 0x3e, 0x3b, 0x5b, 0x0a, 0x3e, 0xb8, 0x14,
		    0x16, 0x3e, 0x8e, 0x0b, 0x2f, 0xbc, 0xa2, 0x82, 0x0b, 0x3e,
		    0xa9, 0x45, 0x7a, 0x3d, 0xb0, 0x88, 0x9c, 0xbd, 0x82, 0xb0,
		    0x8a, 0x3d, 0xa3, 0xef, 0x0a, 0xbe, 0x4b, 0xa4, 0x2c, 0xbd,
		    0x18, 0x06, 0x0c, 0x3e, 0xca, 0xa0, 0x43, 0xbc, 0xcc, 0x39,
		    0xd4, 0xbb, 0x14, 0xea, 0xd1, 0xba, 0x5b, 0xeb, 0xbf, 0x3c,
		    0xec, 0x48, 0x10, 0x3e, 0x64, 0x90, 0x44, 0xbd, 0x6f, 0x57,
		    0x9f, 0xbc, 0x68, 0x8a, 0x7a, 0x3d, 0x87, 0x6f, 0xae, 0x3d,
		    0xbf, 0xd6, 0x69, 0x3c, 0xe0, 0x92, 0x08, 0xbe, 0x0a, 0x6c,
		    0x8a, 0x3d, 0x34, 0xb2, 0xde, 0xbd, 0x0c, 0x2f, 0x71, 0x3d,
		    0xe9, 0x6e, 0x05, 0xbe, 0xc5, 0x85, 0xef, 0x3d, 0xbd, 0xcc,
		    0xb1, 0x3d, 0xca, 0xad, 0x50, 0xbd, 0x34, 0x32, 0xd6, 0xbd,
		    0x6d, 0x20, 0xb9, 0xbc, 0x87, 0xf1, 0x81, 0x3d, 0x2e, 0x0b,
		    0xfd, 0xba, 0x20, 0x5b, 0x04, 0x3a, 0xaa, 0x65, 0xff, 0xbd,
		    0xa7, 0xba, 0x2e, 0x3d, 0x86, 0xc6, 0x9a, 0x3c, 0x36, 0x01,
		    0x01, 0x3d, 0xf2, 0x6c, 0xc9, 0x3d, 0xd9, 0xd3, 0x3a, 0x3d,
		    0xd8, 0x71, 0xcc, 0x3d, 0x0c, 0x78, 0x11, 0x3e, 0xa2, 0x0d,
		    0xc8, 0x39, 0x4b, 0xff, 0x82, 0x3d, 0x5d, 0x5e, 0x52, 0xbd,
		    0x32, 0x54, 0xab, 0x3c, 0xea, 0xb8, 0xd4, 0xbd, 0x7e, 0x48,
		    0x04, 0x3e, 0xa2, 0x06, 0x85, 0x3d, 0x25, 0x25, 0xe2, 0xbd,
		    0x59, 0xe6, 0xe4, 0x3a, 0x9d, 0x74, 0x09, 0xbe, 0xd6, 0x9f,
		    0x8e, 0x3c, 0x0e, 0x93, 0x10, 0x3e, 0x7c, 0x56, 0xed, 0xbd,
		    0xaa, 0x82, 0xca, 0xbd, 0x6e, 0x26, 0x10, 0xbe, 0xb9, 0xfb,
		    0xf1, 0x3d, 0xb1, 0xca, 0x90, 0xbb, 0x1e, 0x0e, 0x80, 0xbc,
		    0xa2, 0xb7, 0xcf, 0x3d, 0x14, 0x02, 0xc6, 0xbd, 0x7b, 0xf8,
		    0x98, 0x3d, 0x33, 0xd9, 0x77, 0x3d, 0x8e, 0x43, 0x21, 0xbd,
		    0x22, 0x9e, 0x52, 0xba, 0xc2, 0xf0, 0x5e, 0x3d, 0x8d, 0xfe,
		    0x13, 0x3e, 0x33, 0x68, 0xf8, 0xbd, 0xd0, 0x12, 0x0d, 0xbe,
		    0x79, 0xb4, 0x0d, 0x3e, 0x38, 0x27, 0x9f, 0x3d, 0xa3, 0xa3,
		    0x21, 0xbd, 0x7f, 0x60, 0xe4, 0x3d, 0xdc, 0xa7, 0x03, 0xbe,
		    0x27, 0x0e, 0x44, 0xbd, 0x58, 0xbf, 0xa3, 0x3d, 0xec, 0x8c,
		    0x7d, 0xbd, 0xb3, 0x3a, 0x99, 0xbc, 0x8a, 0x0a, 0xe8, 0xbc,
		    0x5c, 0xba, 0xdd, 0xbd, 0x23, 0x43, 0x7e, 0x3c, 0x29, 0x2f,
		    0xfb, 0xbd, 0x63, 0xd1, 0x08, 0x3c, 0x77, 0x4e, 0xbc, 0x3d,
		    0xd9, 0xf3, 0x49, 0x3c, 0xc5, 0x8d, 0xbc, 0x3c, 0x3a, 0x5a,
		    0x66, 0xbd, 0xa7, 0xc4, 0xc6, 0xbd, 0xc7, 0x6c, 0x83, 0x3c,
		    0x6d, 0x84, 0x7e, 0x3c, 0xb5, 0xe0, 0xe8, 0xbd, 0xb7, 0x88,
		    0xc7, 0x3d, 0x80, 0x92, 0x39, 0xbb, 0xf5, 0xdf, 0x09, 0xbe,
		    0x75, 0x12, 0x04, 0x3d, 0x7f, 0x58, 0x67, 0xbd, 0xe0, 0x9f,
		    0xfc, 0xbd, 0x4a, 0xa2, 0x9b, 0x3d, 0x34, 0x35, 0xbf, 0xbd,
		    0x82, 0xc4, 0x96, 0xbd, 0xf0, 0x9e, 0x14, 0x3e, 0x5a, 0x41,
		    0x46, 0x3d, 0x9c, 0x56, 0x27, 0xbd, 0x33, 0x4a, 0xfc, 0xbd,
		    0x9f, 0x7b, 0xc3, 0xbd, 0x92, 0xc5, 0xcb, 0x3c, 0x54, 0xc9,
		    0xbc, 0xbc, 0x18, 0x6a, 0xf8, 0x3c, 0xd6, 0x74, 0xcc, 0xbd,
		    0x89, 0x53, 0xb6, 0x3d, 0xe1, 0xbc, 0x61, 0x3a, 0x2c, 0xb8,
		    0x4f, 0x3d, 0x4b, 0xf2, 0x87, 0x3d, 0xf7, 0x25, 0x76, 0xbd,
		    0x93, 0x46, 0x00, 0xbe, 0x49, 0x25, 0xff, 0x3c, 0xc3, 0xe9,
		    0x0e, 0x3e, 0x8a, 0x80, 0x34, 0xbd, 0xdf, 0xc4, 0x6f, 0x3d,
		    0x85, 0x82, 0x69, 0x3c, 0x60, 0x30, 0x5c, 0x3d, 0xb1, 0xc5,
		    0x86, 0xbc, 0xdd, 0xd7, 0x06, 0xbe, 0xf4, 0x63, 0x01, 0x3e,
		    0x6c, 0x62, 0xf3, 0xbb, 0x43, 0x92, 0x08, 0x3e, 0x63, 0xe6,
		    0x57, 0xbb, 0x80, 0x8d, 0xe9, 0x3c, 0x97, 0x81, 0xb0, 0x3d,
		    0x81, 0x58, 0xc0, 0xbc, 0x95, 0x7f, 0xa3, 0x3d, 0x01, 0x46,
		    0x15, 0xbc, 0x91, 0xb5, 0x48, 0x3d, 0xcf, 0x22, 0x6f, 0xbc,
		    0xb3, 0xf3, 0xe2, 0xbd, 0x1d, 0x58, 0xb8, 0x3b, 0xb9, 0x05,
		    0x90, 0x3d, 0xb0, 0xa3, 0x2c, 0x3e, 0xb7, 0x4e, 0x96, 0x3d,
		    0xfb, 0x2a, 0x13, 0x3e, 0x01, 0xf0, 0x06, 0xbe, 0x87, 0x6a,
		    0x0e, 0x3e, 0x69, 0x0f, 0x8e, 0xbd, 0xa7, 0xeb, 0xe9, 0xbd,
		    0x1b, 0x59, 0x23, 0xbd, 0xf8, 0xb1, 0x92, 0x3b, 0x0b, 0x13,
		    0xc4, 0xbd, 0x22, 0x35, 0xa4, 0x3b, 0x15, 0x6a, 0xbd, 0x3d,
		    0x1e, 0x01, 0x53, 0xbd, 0xd1, 0x09, 0x07, 0x3e, 0xd6, 0x19,
		    0x46, 0xbc, 0xe9, 0xdd, 0xca, 0xbc, 0x58, 0x45, 0x35, 0x3e,
		    0x2c, 0x48, 0xab, 0xbd, 0xec, 0xbe, 0xd7, 0xbd, 0x9d, 0xb4,
		    0xea, 0xbd, 0xbf, 0x91, 0x06, 0xbe, 0x2b, 0x8f, 0xc5, 0x3d,
		    0x90, 0xb6, 0x03, 0xbe, 0x25, 0x23, 0xd7, 0x3d, 0x73, 0xf0,
		    0x45, 0x3e, 0xf6, 0x8c, 0x02, 0xbe, 0x83, 0x72, 0xac, 0x3b,
		    0xff, 0x22, 0x67, 0xbd, 0x3c, 0x3f, 0xf7, 0xbd, 0x65, 0x80,
		    0x59, 0xbd, 0xb3, 0x23, 0x3d, 0xbd, 0x5c, 0xef, 0xb8, 0x3d,
		    0x96, 0xab, 0x41, 0xbc, 0x87, 0x37, 0xbe, 0x3d, 0x0e, 0x00,
		    0x31, 0x3d, 0xde, 0xc2, 0xa2, 0xbd, 0x71, 0xb3, 0xf4, 0xbd,
		    0x2c, 0x67, 0x8c, 0xbd, 0xe0, 0xfa, 0xa2, 0x3d, 0xa3, 0xde,
		    0x50, 0xbd, 0x07, 0x8b, 0x0f, 0x3e, 0xb4, 0x1b, 0x0f, 0x3e,
		    0xa5, 0x15, 0xfc, 0xbc, 0xa6, 0xbf, 0x90, 0xbc, 0x5d, 0xff,
		    0x28, 0x3d, 0x82, 0xbc, 0xcd, 0xbd, 0xc4, 0x55, 0x8a, 0xbd,
		    0x7a, 0xa2, 0xc7, 0x3c, 0x68, 0x0d, 0x1b, 0x3c, 0x39, 0x24,
		    0x41, 0x3c, 0xb5, 0x90, 0x86, 0xbd, 0x75, 0x26, 0x3a, 0xbd,
		    0xda, 0x3d, 0xbf, 0x3d, 0x50, 0x17, 0x54, 0x3c, 0xf3, 0xe2,
		    0x79, 0x3d, 0x3b, 0xc6, 0x07, 0x3e, 0x6d, 0x96, 0x2b, 0x3d,
		    0xc6, 0x19, 0x47, 0xbd, 0x0d, 0xc7, 0xb5, 0xbc, 0x6b, 0xa3,
		    0xb3, 0xbd, 0x84, 0x86, 0x57, 0x3d, 0x2b, 0x3a, 0x7f, 0x3c,
		    0x8e, 0xb2, 0xe1, 0x3d, 0x39, 0xec, 0x8c, 0x3c, 0xdb, 0x1e,
		    0x78, 0xbd, 0x62, 0x1a, 0xa2, 0xbd, 0xcd, 0x95, 0xe0, 0x3c,
		    0xdd, 0xd1, 0x22, 0xbd, 0x4f, 0x22, 0x80, 0xbc, 0xe6, 0x4d,
		    0x92, 0x3d, 0x59, 0xa9, 0xf4, 0xbd, 0xe0, 0xd4, 0x1d, 0xbd,
		    0x8e, 0x1c, 0x09, 0xbd, 0xf0, 0xc0, 0xbf, 0xbd, 0x8a, 0x77,
		    0xab, 0x3d, 0xb9, 0x58, 0xfa, 0x3d, 0xbe, 0x9b, 0xee, 0x3d,
		    0xef, 0x88, 0x02, 0x3e, 0x7e, 0xc1, 0x08, 0x3d, 0xcb, 0x24,
		    0x2a, 0xbd, 0x4f, 0x29, 0x51, 0xbd, 0x53, 0x64, 0x70, 0xbd,
		    0xe2, 0x97, 0x6c, 0xbd, 0xb1, 0x07, 0xf7, 0xbc, 0x5b, 0x43,
		    0x21, 0xbc, 0x67, 0xec, 0xd5, 0x3d, 0x25, 0x3d, 0xff, 0x3d,
		    0xfd, 0x08, 0x8a, 0x3d, 0x83, 0x22, 0x8c, 0x3d, 0xb8, 0x47,
		    0xaf, 0xbc, 0x03, 0x47, 0xee, 0xbd, 0x40, 0x76, 0xda, 0x3c,
		    0x9b, 0x5f, 0xa2, 0xbc, 0x79, 0x89, 0xba, 0xbd, 0x54, 0x23,
		    0x4a, 0x3d, 0x83, 0x02, 0x73, 0xbd, 0x44, 0xe3, 0xc8, 0x3d,
		    0xc1, 0x2e, 0xd4, 0x3d, 0x81, 0xf4, 0xa0, 0xbc, 0xff, 0x91,
		    0xa4, 0xbd, 0x16, 0xfd, 0xad, 0xbd, 0x5e, 0x88, 0x9a, 0x3c,
		    0x47, 0x51, 0x81, 0xbc, 0x15, 0x5e, 0x2b, 0xbd, 0x52, 0xa5,
		    0x41, 0xbc, 0xaa, 0xf0, 0xef, 0x3d, 0xcf, 0xb2, 0x87, 0xbd,
		    0x6b, 0x44, 0x21, 0x3d, 0xc4, 0xad, 0xb2, 0x3d, 0x06, 0x00,
		    0x67, 0x3d, 0xac, 0xb0, 0x05, 0x3d, 0x85, 0xff, 0x06, 0x3e,
		    0x8f, 0x94, 0x0f, 0x3e, 0x53, 0x4e, 0x56, 0xbb, 0x36, 0xe2,
		    0xd0, 0x3c, 0x53, 0x1e, 0xea, 0xbb, 0xda, 0x8f, 0xd4, 0xbd,
		    0x08, 0x55, 0xa4, 0xbc, 0xa4, 0x81, 0xa3, 0x3d, 0xd2, 0x37,
		    0x35, 0x3d, 0x50, 0xf7, 0x40, 0x3e, 0x22, 0x83, 0xb2, 0x3d,
		    0x10, 0x1d, 0x9c, 0xbd, 0xbf, 0x64, 0xb5, 0x3d, 0xfe, 0x06,
		    0x2a, 0xbd, 0x14, 0xe5, 0xe1, 0x3d, 0xb5, 0x86, 0xef, 0xbb,
		    0xd0, 0xf8, 0x14, 0xbd, 0x11, 0x96, 0x1e, 0x3b, 0xb1, 0xd8,
		    0xa6, 0x3c, 0x78, 0xb0, 0xd8, 0x3c, 0x26, 0xbc, 0x8e, 0xbd,
		    0x96, 0x33, 0x5e, 0xbd, 0x72, 0x22, 0x1d, 0x3e, 0x15, 0x73,
		    0xe3, 0x3d, 0xb4, 0xaf, 0xd9, 0x3c, 0xce, 0x0b, 0x27, 0xbc,
		    0x83, 0x24, 0x9c, 0xbd, 0x51, 0x61, 0x75, 0x3c, 0x43, 0x48,
		    0xac, 0xbd, 0xd7, 0x69, 0xad, 0x3d, 0x7b, 0xaa, 0xac, 0x3d,
		    0xf0, 0xba, 0xaa, 0xbd, 0x51, 0xe2, 0x8d, 0x3d, 0x84, 0xd9,
		    0xb0, 0xbc, 0x2a, 0xf1, 0xab, 0xbd, 0x7b, 0x5f, 0x08, 0x3e,
		    0xf9, 0xaf, 0xd1, 0xbd, 0x36, 0xd2, 0x4e, 0xbd, 0x6a, 0xe8,
		    0x6e, 0xbd, 0x9f, 0xaa, 0x0a, 0xbe, 0xcb, 0xc0, 0x43, 0xbc,
		    0xef, 0x2d, 0xe0, 0x3a, 0x9d, 0x1e, 0x7b, 0xbd, 0x9d, 0xb6,
		    0xde, 0x3d, 0x83, 0x81, 0x06, 0x3e, 0xa8, 0x07, 0x1c, 0x3d,
		    0xc4, 0x19, 0x06, 0x3e, 0x64, 0x65, 0x73, 0x3d, 0x4d, 0x88,
		    0xa6, 0x3d, 0xcf, 0xe3, 0x9b, 0x3d, 0xdf, 0x91, 0x8e, 0x3d,
		    0x74, 0x02, 0xdf, 0x3d, 0x78, 0x89, 0x66, 0x3c, 0xc4, 0x4c,
		    0x09, 0x3e, 0x5f, 0xeb, 0xc1, 0x3c, 0x2d, 0x90, 0x66, 0x3c,
		    0x20, 0x0f, 0xab, 0xbd, 0x18, 0x5b, 0xcd, 0xbd, 0x90, 0x6d,
		    0x66, 0xbb, 0x23, 0xe7, 0x50, 0xbd, 0xe5, 0x88, 0x2c, 0xbd,
		    0x55, 0x4a, 0xdd, 0x3d, 0x7c, 0x01, 0x6f, 0xbd, 0x85, 0xa8,
		    0x10, 0x3e, 0xf0, 0xcc, 0x19, 0x3d, 0x30, 0x43, 0xd0, 0x3c,
		    0x9e, 0xff, 0x82, 0xbd, 0xa0, 0x14, 0x3b, 0x3d, 0xcc, 0xc0,
		    0xe8, 0xbb, 0x8b, 0xbb, 0x22, 0x3d, 0x48, 0x4a, 0x0c, 0x3e,
		    0xb4, 0x39, 0x48, 0x3c, 0x61, 0xd6, 0x50, 0xbd, 0x2b, 0x57,
		    0x88, 0x3c, 0x67, 0xa4, 0x4a, 0x3d, 0xb1, 0x35, 0x1c, 0x3d,
		    0xd5, 0x61, 0x14, 0xbe, 0xff, 0x85, 0xda, 0xbd, 0x40, 0x13,
		    0x9f, 0xbd, 0x49, 0xe4, 0xd7, 0xba, 0xc3, 0xc0, 0xc7, 0xbd,
		    0x3d, 0x7c, 0xc8, 0x3b, 0x1e, 0xd8, 0xac, 0xbd, 0x43, 0x2c,
		    0x9f, 0x3d, 0xd6, 0x4f, 0x0c, 0xbe, 0x1f, 0x9e, 0xd4, 0xbd,
		    0x33, 0xba, 0xa3, 0x3d, 0x83, 0x37, 0x88, 0x3d, 0x5d, 0x34,
		    0xc0, 0xbd, 0x2f, 0xc5, 0x94, 0x3d, 0x49, 0xbe, 0x36, 0x3d,
		    0x77, 0xf9, 0xc4, 0xbd, 0x3c, 0x4a, 0x5d, 0x3d, 0x5e, 0x8d,
		    0x2b, 0x3d, 0xfd, 0x2a, 0xe2, 0xbc, 0x16, 0x4b, 0x02, 0x3e,
		    0x60, 0xb5, 0xd6, 0x3d, 0x2a, 0xe8, 0xdd, 0xbc, 0x32, 0xb5,
		    0xd5, 0xbc, 0x91, 0xee, 0xbf, 0x3d, 0xdf, 0x1c, 0xc1, 0xbd
  };

  return AI_HANDLE_PTR(s_asc_weights);
}

